{
  "version": "1.0",
  "truncation": null,
  "padding": null,
  "added_tokens": [
    {
      "id": 0,
      "content": "<|endoftext|>",
      "single_word": false,
      "lstrip": false,
      "rstrip": false,
      "normalized": false,
      "special": true
    }
  ],
  "normalizer": null,
  "pre_tokenizer": {
    "type": "Sequence",
    "pretokenizers": [
      {
        "type": "Digits",
        "individual_digits": true
      },
      {
        "type": "ByteLevel",
        "add_prefix_space": false,
        "trim_offsets": true,
        "use_regex": true
      }
    ]
  },
  "post_processor": null,
  "decoder": {
    "type": "ByteLevel",
    "add_prefix_space": true,
    "trim_offsets": true,
    "use_regex": true
  },
  "model": {
    "type": "BPE",
    "dropout": null,
    "unk_token": null,
    "continuing_subword_prefix": null,
    "end_of_word_suffix": null,
    "fuse_unk": false,
    "byte_fallback": false,
    "ignore_merges": false,
    "vocab": {
      "<|endoftext|>": 0,
      "!": 1,
      "\"": 2,
      "#": 3,
      "$": 4,
      "%": 5,
      "&": 6,
      "'": 7,
      "(": 8,
      ")": 9,
      "*": 10,
      "+": 11,
      ",": 12,
      "-": 13,
      ".": 14,
      "/": 15,
      "0": 16,
      "1": 17,
      "2": 18,
      "3": 19,
      "4": 20,
      "5": 21,
      "6": 22,
      "7": 23,
      "8": 24,
      "9": 25,
      ":": 26,
      ";": 27,
      "<": 28,
      "=": 29,
      ">": 30,
      "?": 31,
      "@": 32,
      "A": 33,
      "B": 34,
      "C": 35,
      "D": 36,
      "E": 37,
      "F": 38,
      "G": 39,
      "H": 40,
      "I": 41,
      "J": 42,
      "K": 43,
      "L": 44,
      "M": 45,
      "N": 46,
      "O": 47,
      "P": 48,
      "Q": 49,
      "R": 50,
      "S": 51,
      "T": 52,
      "U": 53,
      "V": 54,
      "W": 55,
      "X": 56,
      "Y": 57,
      "Z": 58,
      "[": 59,
      "\\": 60,
      "]": 61,
      "^": 62,
      "_": 63,
      "`": 64,
      "a": 65,
      "b": 66,
      "c": 67,
      "d": 68,
      "e": 69,
      "f": 70,
      "g": 71,
      "h": 72,
      "i": 73,
      "j": 74,
      "k": 75,
      "l": 76,
      "m": 77,
      "n": 78,
      "o": 79,
      "p": 80,
      "q": 81,
      "r": 82,
      "s": 83,
      "t": 84,
      "u": 85,
      "v": 86,
      "w": 87,
      "x": 88,
      "y": 89,
      "z": 90,
      "{": 91,
      "|": 92,
      "}": 93,
      "~": 94,
      "¡": 95,
      "¢": 96,
      "£": 97,
      "¤": 98,
      "¥": 99,
      "¦": 100,
      "§": 101,
      "¨": 102,
      "©": 103,
      "ª": 104,
      "«": 105,
      "¬": 106,
      "®": 107,
      "¯": 108,
      "°": 109,
      "±": 110,
      "²": 111,
      "³": 112,
      "´": 113,
      "µ": 114,
      "¶": 115,
      "·": 116,
      "¸": 117,
      "¹": 118,
      "º": 119,
      "»": 120,
      "¼": 121,
      "½": 122,
      "¾": 123,
      "¿": 124,
      "À": 125,
      "Á": 126,
      "Â": 127,
      "Ã": 128,
      "Ä": 129,
      "Å": 130,
      "Æ": 131,
      "Ç": 132,
      "È": 133,
      "É": 134,
      "Ê": 135,
      "Ë": 136,
      "Ì": 137,
      "Í": 138,
      "Î": 139,
      "Ï": 140,
      "Ð": 141,
      "Ñ": 142,
      "Ò": 143,
      "Ó": 144,
      "Ô": 145,
      "Õ": 146,
      "Ö": 147,
      "×": 148,
      "Ø": 149,
      "Ù": 150,
      "Ú": 151,
      "Û": 152,
      "Ü": 153,
      "Ý": 154,
      "Þ": 155,
      "ß": 156,
      "à": 157,
      "á": 158,
      "â": 159,
      "ã": 160,
      "ä": 161,
      "å": 162,
      "æ": 163,
      "ç": 164,
      "è": 165,
      "é": 166,
      "ê": 167,
      "ë": 168,
      "ì": 169,
      "í": 170,
      "î": 171,
      "ï": 172,
      "ð": 173,
      "ñ": 174,
      "ò": 175,
      "ó": 176,
      "ô": 177,
      "õ": 178,
      "ö": 179,
      "÷": 180,
      "ø": 181,
      "ù": 182,
      "ú": 183,
      "û": 184,
      "ü": 185,
      "ý": 186,
      "þ": 187,
      "ÿ": 188,
      "Ā": 189,
      "ā": 190,
      "Ă": 191,
      "ă": 192,
      "Ą": 193,
      "ą": 194,
      "Ć": 195,
      "ć": 196,
      "Ĉ": 197,
      "ĉ": 198,
      "Ċ": 199,
      "ċ": 200,
      "Č": 201,
      "č": 202,
      "Ď": 203,
      "ď": 204,
      "Đ": 205,
      "đ": 206,
      "Ē": 207,
      "ē": 208,
      "Ĕ": 209,
      "ĕ": 210,
      "Ė": 211,
      "ė": 212,
      "Ę": 213,
      "ę": 214,
      "Ě": 215,
      "ě": 216,
      "Ĝ": 217,
      "ĝ": 218,
      "Ğ": 219,
      "ğ": 220,
      "Ġ": 221,
      "ġ": 222,
      "Ģ": 223,
      "ģ": 224,
      "Ĥ": 225,
      "ĥ": 226,
      "Ħ": 227,
      "ħ": 228,
      "Ĩ": 229,
      "ĩ": 230,
      "Ī": 231,
      "ī": 232,
      "Ĭ": 233,
      "ĭ": 234,
      "Į": 235,
      "į": 236,
      "İ": 237,
      "ı": 238,
      "Ĳ": 239,
      "ĳ": 240,
      "Ĵ": 241,
      "ĵ": 242,
      "Ķ": 243,
      "ķ": 244,
      "ĸ": 245,
      "Ĺ": 246,
      "ĺ": 247,
      "Ļ": 248,
      "ļ": 249,
      "Ľ": 250,
      "ľ": 251,
      "Ŀ": 252,
      "ŀ": 253,
      "Ł": 254,
      "ł": 255,
      "Ń": 256,
      "ĠĠ": 257,
      "ĠĠĠĠ": 258,
      "Ġt": 259,
      "in": 260,
      "er": 261,
      "on": 262,
      "re": 263,
      "ĠĠĠ": 264,
      "Ġa": 265,
      "ĠĠĠĠĠĠĠĠ": 266,
      "at": 267,
      "en": 268,
      "Ġth": 269,
      "st": 270,
      "or": 271,
      "se": 272,
      "Ġc": 273,
      "le": 274,
      "al": 275,
      "ar": 276,
      "an": 277,
      "ion": 278,
      "it": 279,
      "Ġthe": 280,
      "is": 281,
      "ĊĠĠĠĠ": 282,
      "Ġf": 283,
      "de": 284,
      "Ġo": 285,
      "ct": 286,
      "Ġp": 287,
      "Ġ=": 288,
      "ĊĠĠĠĠĠĠĠĠ": 289,
      "ro": 290,
      "Ġs": 291,
      "Ġ\"": 292,
      "es": 293,
      "Ġw": 294,
      "ing": 295,
      "ed": 296,
      "ou": 297,
      "Ġb": 298,
      "ic": 299,
      "ĊĠĠĠĠĠĠĠ": 300,
      "ent": 301,
      "ĊĠĠĠ": 302,
      "Ġin": 303,
      "Ġm": 304,
      "Ġn": 305,
      "nd": 306,
      "Ġre": 307,
      "am": 308,
      "Ġof": 309,
      "et": 310,
      "Ġ(": 311,
      "Ġto": 312,
      "Ġ'": 313,
      "Ġe": 314,
      "ĉĉ": 315,
      "Ġh": 316,
      "Ġd": 317,
      "ĊĠ": 318,
      "ur": 319,
      "Ġ{": 320,
      "as": 321,
      "ll": 322,
      "ch": 323,
      "Ġand": 324,
      ");": 325,
      "om": 326,
      "if": 327,
      "id": 328,
      "th": 329,
      "im": 330,
      "lo": 331,
      "un": 332,
      "ut": 333,
      "ve": 334,
      "ag": 335,
      "ce": 336,
      "ri": 337,
      "\":": 338,
      "pe": 339,
      "Ġse": 340,
      "--": 341,
      "ate": 342,
      "ĊĠĠĠĠĠĠĠĠĠĠĠ": 343,
      "ĠT": 344,
      "il": 345,
      "ue": 346,
      "lf": 347,
      "ad": 348,
      "Ġ}": 349,
      "pt": 350,
      "ation": 351,
      "',": 352,
      "Ġv": 353,
      "ol": 354,
      "ot": 355,
      "Ġl": 356,
      "ction": 357,
      "Ġis": 358,
      "ame": 359,
      "Ġde": 360,
      "ig": 361,
      "ĠI": 362,
      "Ġg": 363,
      "ra": 364,
      "Ġst": 365,
      "Ġ*": 366,
      "ers": 367,
      "he": 368,
      "Ġfor": 369,
      "\",": 370,
      "ĠA": 371,
      "nt": 372,
      "ul": 373,
      "um": 374,
      "ck": 375,
      "Ċĉ": 376,
      "ĠĠĠĠĠĠĠ": 377,
      "ĠS": 378,
      "Ġcon": 379,
      "ly": 380,
      "ab": 381,
      "Ċĉĉ": 382,
      "ĠC": 383,
      "us": 384,
      "Ġbe": 385,
      "em": 386,
      "ow": 387,
      "ĊĠĠĠĠĠĠĠĠĠĠĠĠĠĠĠĠ": 388,
      "ex": 389,
      "//": 390,
      "ist": 391,
      "Ġif": 392,
      "age": 393,
      "Ġthis": 394,
      "ort": 395,
      "od": 396,
      "urn": 397,
      "âĢ": 398,
      "ĊĠĠĠĠĠ": 399,
      "ir": 400,
      "ay": 401,
      "()": 402,
      "el": 403,
      "up": 404,
      "ke": 405,
      "Ġself": 406,
      "res": 407,
      "turn": 408,
      "ption": 409,
      "ith": 410,
      "ang": 411,
      "sc": 412,
      "ver": 413,
      "Ġon": 414,
      "Ġas": 415,
      "ment": 416,
      "est": 417,
      "Ġpro": 418,
      "Ġex": 419,
      "ap": 420,
      "Ġy": 421,
      "ect": 422,
      "ode": 423,
      "ter": 424,
      "qu": 425,
      "unction": 426,
      "('": 427,
      "**": 428,
      "ht": 429,
      "Ġwh": 430,
      "Ġthat": 431,
      "ĊĠĠĠĠĠĠĠĠĠĠĠĠĠĠĠ": 432,
      "port": 433,
      "),": 434,
      "==": 435,
      "ype": 436,
      "ĠP": 437,
      "rom": 438,
      "ore": 439,
      "and": 440,
      "ew": 441,
      "ull": 442,
      "##": 443,
      "pl": 444,
      "ass": 445,
      "Ġreturn": 446,
      "ile": 447,
      "ĠM": 448,
      "Ġit": 449,
      "our": 450,
      "----": 451,
      "op": 452,
      "con": 453,
      "Ġor": 454,
      "Ġan": 455,
      "end": 456,
      "ult": 457,
      "Ġwith": 458,
      "):": 459,
      "ata": 460,
      "ĠF": 461,
      "get": 462,
      "iz": 463,
      "ount": 464,
      "ĊĊĠĠĠ": 465,
      "os": 466,
      "name": 467,
      "ess": 468,
      "ĠD": 469,
      "ert": 470,
      "art": 471,
      "Ġ[": 472,
      "ĠB": 473,
      "ain": 474,
      "ase": 475,
      "ext": 476,
      "ity": 477,
      "able": 478,
      "Ġare": 479,
      "Ġ-": 480,
      "Ġnull": 481,
      "ub": 482,
      "for": 483,
      "Ġ+": 484,
      "Ġcom": 485,
      "ĠN": 486,
      "iv": 487,
      "self": 488,
      "ĠR": 489,
      "ath": 490,
      "use": 491,
      "cl": 492,
      "pro": 493,
      "ive": 494,
      "Ġfunction": 495,
      "ject": 496,
      "ĠW": 497,
      "all": 498,
      "ies": 499,
      "ĠE": 500,
      ").": 501,
      "Ġnot": 502,
      "ĠThe": 503,
      "to": 504,
      "ack": 505,
      "ĠL": 506,
      "ere": 507,
      "scri": 508,
      "ill": 509,
      "one": 510,
      "ast": 511,
      "ine": 512,
      "alue": 513,
      "Ġ#": 514,
      "ld": 515,
      "com": 516,
      "ure": 517,
      "ĊĊ": 518,
      "ant": 519,
      "ib": 520,
      "Ġr": 521,
      "ial": 522,
      "Ġvar": 523,
      "Ġdef": 524,
      "ated": 525,
      "Ġch": 526,
      "Ġlo": 527,
      "Ġim": 528,
      "oc": 529,
      "ĠG": 530,
      "._": 531,
      "Ġ$": 532,
      "ire": 533,
      "set": 534,
      "ĠH": 535,
      "are": 536,
      "ff": 537,
      "Ġres": 538,
      "out": 539,
      "ĠIN": 540,
      "key": 541,
      "Ġle": 542,
      "Ġfrom": 543,
      "':": 544,
      "tr": 545,
      "ĠV": 546,
      "ĠO": 547,
      "ide": 548,
      "int": 549,
      "Ġtr": 550,
      "Ġat": 551,
      "Ġ//": 552,
      "Ġby": 553,
      "ip": 554,
      "scription": 555,
      "ach": 556,
      "(\"": 557,
      "ind": 558,
      "ave": 559,
      "angu": 560,
      "ER": 561,
      "Ġ_": 562,
      "ost": 563,
      "vent": 564,
      "anguage": 565,
      "Ġwe": 566,
      "')": 567,
      "Ġsh": 568,
      "act": 569,
      "ime": 570,
      "str": 571,
      "AR": 572,
      "Ġ@": 573,
      "ize": 574,
      "cc": 575,
      "âĢĻ": 576,
      "ug": 577,
      "Ġcan": 578,
      "par": 579,
      "\"\"": 580,
      "Ġal": 581,
      "ĊĊĠĠĠĠĠĠĠ": 582,
      "atch": 583,
      "cre": 584,
      "description": 585,
      "ord": 586,
      "Ġ|": 587,
      "ĊĠĠĠĠĠĠĠĠĠĠĠĠĠĠĠĠĠĠĠ": 588,
      "Ġcont": 589,
      "ans": 590,
      "Ġ:": 591,
      "oo": 592,
      "ber": 593,
      "this": 594,
      "language": 595,
      "ple": 596,
      "put": 597,
      "ance": 598,
      "per": 599,
      "ror": 600,
      "ss": 601,
      "In": 602,
      "LE": 603,
      "],": 604,
      "ild": 605,
      "ice": 606,
      "bject": 607,
      "ks": 608,
      "Ġar": 609,
      "Ġyou": 610,
      "ust": 611,
      "que": 612,
      "ace": 613,
      "Ġel": 614,
      "ight": 615,
      "Ġ&": 616,
      "und": 617,
      "ĊĠĠĠĠĠĠĠĠĠĠĠĠĠĠĠĠĠĠĠĠĠĠĠĠ": 618,
      "po": 619,
      "Ġcl": 620,
      "ud": 621,
      "ould": 622,
      "AT": 623,
      "Ġun": 624,
      "--------": 625,
      "count": 626,
      "ition": 627,
      "))": 628,
      "ac": 629,
      "pon": 630,
      "form": 631,
      "def": 632,
      "ĊĠĠĠĠĠĠĠĠĠ": 633,
      "Ġhe": 634,
      "ĠU": 635,
      "ard": 636,
      "Ġwas": 637,
      "av": 638,
      "####": 639,
      "Ġen": 640,
      "ical": 641,
      "type": 642,
      "te": 643,
      "ther": 644,
      "Ġnew": 645,
      "ĠINT": 646,
      "ry": 647,
      "lic": 648,
      "sh": 649,
      "arg": 650,
      "du": 651,
      "ense": 652,
      "Ċĉĉĉĉ": 653,
      "Ġhave": 654,
      "Ġuse": 655,
      "ps": 656,
      "ory": 657,
      "__": 658,
      "Ġ<": 659,
      "();": 660,
      "ail": 661,
      "ise": 662,
      "Ġstr": 663,
      "ia": 664,
      "Ġk": 665,
      "ary": 666,
      "Ġad": 667,
      "ign": 668,
      "Ċĉĉĉ": 669,
      "ser": 670,
      "log": 671,
      "ĠâĢ": 672,
      "ak": 673,
      "ule": 674,
      "var": 675,
      "Ġj": 676,
      "eth": 677,
      "alse": 678,
      "St": 679,
      "ear": 680,
      "eng": 681,
      "..": 682,
      "ork": 683,
      "Ġpl": 684,
      "ich": 685,
      "ptions": 686,
      "ite": 687,
      "Ġ&&": 688,
      "lement": 689,
      "eld": 690,
      "ont": 691,
      "Ġall": 692,
      "ents": 693,
      "Ġab": 694,
      "Ġdo": 695,
      "ress": 696,
      "lect": 697,
      "pect": 698,
      "ĠTh": 699,
      "Ġ/": 700,
      "pr": 701,
      "ĠJ": 702,
      "Ġtest": 703,
      "data": 704,
      "ES": 705,
      "so": 706,
      "row": 707,
      "');": 708,
      "Ġus": 709,
      "val": 710,
      "ery": 711,
      "ield": 712,
      "ence": 713,
      "****": 714,
      "ations": 715,
      "Ġelse": 716,
      "Re": 717,
      "dex": 718,
      "Ġname": 719,
      "Ġ)": 720,
      "fig": 721,
      "Ġwill": 722,
      "=\"": 723,
      "ph": 724,
      "app": 725,
      "ens": 726,
      "Ġap": 727,
      "RE": 728,
      "tt": 729,
      "file": 730,
      "Ġdata": 731,
      "====": 732,
      "ax": 733,
      "gr": 734,
      "pec": 735,
      "add": 736,
      "quest": 737,
      "['": 738,
      "date": 739,
      "Ġhas": 740,
      "Ġget": 741,
      "param": 742,
      "ual": 743,
      "ong": 744,
      "']": 745,
      "fer": 746,
      "ish": 747,
      "ray": 748,
      "://": 749,
      "odel": 750,
      "Ġimport": 751,
      "ength": 752,
      "ĠÐ": 753,
      "Ġout": 754,
      "ec": 755,
      "ient": 756,
      "Ġ},": 757,
      "Ġi": 758,
      "path": 759,
      "ake": 760,
      "cont": 761,
      "Ġ!": 762,
      "ove": 763,
      "ĠĠĠĠĠ": 764,
      "ob": 765,
      "ous": 766,
      "ĊĊĠ": 767,
      "ings": 768,
      "RO": 769,
      "Ġ*/": 770,
      "ome": 771,
      "ĠIn": 772,
      "function": 773,
      "The": 774,
      "Ġ==": 775,
      "Ġ\"\"\"": 776,
      "ange": 777,
      "AL": 778,
      "but": 779,
      "Ġwhich": 780,
      "IN": 781,
      "Name": 782,
      "ded": 783,
      "ault": 784,
      "Ġpre": 785,
      "ix": 786,
      "umber": 787,
      "own": 788,
      "Ġconst": 789,
      "SE": 790,
      "iew": 791,
      "we": 792,
      "Ġyour": 793,
      "test": 794,
      "ource": 795,
      "Pro": 796,
      "Ġup": 797,
      "ATE": 798,
      "\")": 799,
      "qual": 800,
      "rig": 801,
      "Ġne": 802,
      "ree": 803,
      "ener": 804,
      "Ġtheir": 805,
      "Ġ>": 806,
      "led": 807,
      "ep": 808,
      "og": 809,
      "Ġdis": 810,
      "ound": 811,
      "Ġvalue": 812,
      "ater": 813,
      "Ġ=>": 814,
      "Ġso": 815,
      "Ġ});": 816,
      "Ð¾": 817,
      "odule": 818,
      "ĊĠĠĠĠĠĠĠĠĠĠĠĠĠĠĠĠĠĠĠĠĠĠĠ": 819,
      "Ġpar": 820,
      "ions": 821,
      "Ġbut": 822,
      "ft": 823,
      "rue": 824,
      "ick": 825,
      "ãģ": 826,
      "htt": 827,
      "Ġper": 828,
      "Ġmore": 829,
      "ON": 830,
      "Ġro": 831,
      "quire": 832,
      "ge": 833,
      "ors": 834,
      "CH": 835,
      "Ġsc": 836,
      "urre": 837,
      "enc": 838,
      "ĠĠĠĠĠĠĠĠĠĠĠĠĠĠĠĠ": 839,
      "ink": 840,
      "value": 841,
      "les": 842,
      "Ġthey": 843,
      "Ġ===": 844,
      "return": 845,
      "Ġ%": 846,
      "size": 847,
      "arch": 848,
      "Ġtrue": 849,
      "roup": 850,
      "ĠK": 851,
      "Ġsy": 852,
      "Ġ`": 853,
      "ne": 854,
      "from": 855,
      "back": 856,
      "ie": 857,
      "error": 858,
      "ates": 859,
      "Ġass": 860,
      "ethod": 861,
      "ribut": 862,
      "].": 863,
      "âĢĿ": 864,
      "Ġsu": 865,
      "'s": 866,
      "Ġone": 867,
      "Ð°": 868,
      "pre": 869,
      "Ġcomm": 870,
      "over": 871,
      "pert": 872,
      "Ġtype": 873,
      "old": 874,
      "Ġ||": 875,
      "Ġman": 876,
      "Ðµ": 877,
      "rror": 878,
      "ms": 879,
      "length": 880,
      "Ġset": 881,
      "erv": 882,
      "Ġcre": 883,
      "CT": 884,
      "Ġresult": 885,
      "Ġme": 886,
      "AB": 887,
      "Id": 888,
      "sed": 889,
      "ng": 890,
      "Ġother": 891,
      "last": 892,
      "Ġpr": 893,
      "Ġpart": 894,
      "Ġfile": 895,
      "io": 896,
      "irst": 897,
      "Ch": 898,
      "];": 899,
      "Ġtime": 900,
      "urrent": 901,
      "ific": 902,
      "Ġinter": 903,
      "ID": 904,
      "ponse": 905,
      "url": 906,
      "},": 907,
      "Ġany": 908,
      "Ġcol": 909,
      "cho": 910,
      "ca": 911,
      "Ġte": 912,
      "ood": 913,
      "ĠSt": 914,
      "Type": 915,
      "Ġx": 916,
      "class": 917,
      "ĠThis": 918,
      "orm": 919,
      "ĊĠĠ": 920,
      "Ġ.": 921,
      "'),": 922,
      "fo": 923,
      "Ġwhen": 924,
      "ined": 925,
      "ĠRe": 926,
      "ample": 927,
      "pos": 928,
      "Ð¸": 929,
      "ok": 930,
      "vel": 931,
      "assert": 932,
      "Ġ\"$": 933,
      "ĠNone": 934,
      "Cont": 935,
      "uth": 936,
      "Ġalso": 937,
      "ument": 938,
      "ml": 939,
      "load": 940,
      "ush": 941,
      "low": 942,
      "])": 943,
      "Ar": 944,
      "Ġno": 945,
      "iss": 946,
      "Ġstring": 947,
      "ĠâĢľ": 948,
      "Ġwere": 949,
      "ator": 950,
      "########": 951,
      "ues": 952,
      "ict": 953,
      "ccess": 954,
      "license": 955,
      "ative": 956,
      "Ġadd": 957,
      "rit": 958,
      "tem": 959,
      "Ġpe": 960,
      "min": 961,
      "essage": 962,
      "ied": 963,
      "ĠY": 964,
      "nc": 965,
      "stance": 966,
      "Ġund": 967,
      "Ġsup": 968,
      "Error": 969,
      "';": 970,
      "ef": 971,
      "Ġmay": 972,
      "----------------": 973,
      "Ġfalse": 974,
      "Ġkey": 975,
      "Ġreg": 976,
      "[\"": 977,
      "bo": 978,
      "ike": 979,
      "ww": 980,
      "ger": 981,
      "='": 982,
      "igh": 983,
      "Ġspec": 984,
      "ÑĤ": 985,
      "Ġarg": 986,
      "list": 987,
      "oll": 988,
      "ark": 989,
      "Ġem": 990,
      "col": 991,
      "ys": 992,
      "ces": 993,
      "Cl": 994,
      "yp": 995,
      "Ġexpect": 996,
      "ersion": 997,
      "dir": 998,
      "ses": 999,
      "SER": 1000,
      "read": 1001,
      "Ġsub": 1002,
      "right": 1003,
      "arget": 1004,
      "IT": 1005,
      "ABLE": 1006,
      "ning": 1007,
      "score": 1008,
      "Ġval": 1009,
      "ov": 1010,
      "ns": 1011,
      "Ex": 1012,
      "ody": 1013,
      "Ġid": 1014,
      "ays": 1015,
      "arent": 1016,
      "Ġwho": 1017,
      "js": 1018,
      "Ġtra": 1019,
      "ARCH": 1020,
      "({": 1021,
      "ian": 1022,
      "stem": 1023,
      "Ġyear": 1024,
      "ating": 1025,
      "cal": 1026,
      "Ġthem": 1027,
      "pen": 1028,
      "Ġabout": 1029,
      "repo": 1030,
      "lib": 1031,
      "allback": 1032,
      "\");": 1033,
      "REATE": 1034,
      "Ġra": 1035,
      "Ð½": 1036,
      "uct": 1037,
      "ĠCh": 1038,
      "watch": 1039,
      "ARCHAR": 1040,
      "Ġunder": 1041,
      "ĠVARCHAR": 1042,
      "Ġ};": 1043,
      "created": 1044,
      "ages": 1045,
      "Ġthen": 1046,
      "Ġover": 1047,
      "ash": 1048,
      "ock": 1049,
      "be": 1050,
      "lock": 1051,
      "Ġobject": 1052,
      "ren": 1053,
      "heck": 1054,
      "Com": 1055,
      "line": 1056,
      "::": 1057,
      "cess": 1058,
      "Ġ?": 1059,
      "Ġwork": 1060,
      "irect": 1061,
      "ven": 1062,
      "Ġact": 1063,
      "Ġform": 1064,
      "ĠTABLE": 1065,
      "Ġstud": 1066,
      "Ġevent": 1067,
      "Ġcount": 1068,
      "Ġpos": 1069,
      "uild": 1070,
      "Ġshould": 1071,
      "Ġclass": 1072,
      "ook": 1073,
      "Ġ('": 1074,
      "Ġlist": 1075,
      "Ġqu": 1076,
      "atus": 1077,
      "ible": 1078,
      "UES": 1079,
      "};": 1080,
      "import": 1081,
      "its": 1082,
      "pan": 1083,
      "Ġ);": 1084,
      "args": 1085,
      "Ġinto": 1086,
      "of": 1087,
      "Ġag": 1088,
      "watchers": 1089,
      "ĠIt": 1090,
      "forks": 1091,
      "ams": 1092,
      "abel": 1093,
      "Ġthan": 1094,
      "Data": 1095,
      "ames": 1096,
      "SERT": 1097,
      "cept": 1098,
      "Ġrequire": 1099,
      "ĊĊĉ": 1100,
      "ĠVAL": 1101,
      "ton": 1102,
      "Ġ()": 1103,
      "ĠINTO": 1104,
      "Ġused": 1105,
      "Ġthere": 1106,
      "cation": 1107,
      "user": 1108,
      "ĠVALUES": 1109,
      "ell": 1110,
      "ics": 1111,
      "no": 1112,
      "Res": 1113,
      "EN": 1114,
      "Ġdif": 1115,
      "ROM": 1116,
      "Th": 1117,
      "Con": 1118,
      "True": 1119,
      "tot": 1120,
      "Ġonly": 1121,
      "Ġnumber": 1122,
      "Ġob": 1123,
      "ÑĢ": 1124,
      "icense": 1125,
      "duct": 1126,
      "aw": 1127,
      "ular": 1128,
      "Ġbeen": 1129,
      "idth": 1130,
      "Ġrem": 1131,
      "ublic": 1132,
      "ude": 1133,
      "Ġsome": 1134,
      "ĠFROM": 1135,
      "ious": 1136,
      "Ġrec": 1137,
      "Ġcase": 1138,
      "tra": 1139,
      "vide": 1140,
      "search": 1141,
      "Ġhis": 1142,
      "Ġoptions": 1143,
      "To": 1144,
      "module": 1145,
      "fter": 1146,
      "Ġits": 1147,
      "string": 1148,
      "inal": 1149,
      "ins": 1150,
      "ments": 1151,
      "Ġbo": 1152,
      "ĠINSERT": 1153,
      "ities": 1154,
      "LECT": 1155,
      "********": 1156,
      "ale": 1157,
      "ner": 1158,
      "ute": 1159,
      "Ġchild": 1160,
      "index": 1161,
      "========": 1162,
      "Ġfirst": 1163,
      "List": 1164,
      "oint": 1165,
      "Ġrel": 1166,
      "ey": 1167,
      "not": 1168,
      "Ġstate": 1169,
      "](": 1170,
      "mer": 1171,
      "fl": 1172,
      "Ġincl": 1173,
      "object": 1174,
      "perty": 1175,
      "ugh": 1176,
      "));": 1177,
      "Ġhel": 1178,
      "opy": 1179,
      "ST": 1180,
      "export": 1181,
      "ility": 1182,
      "ader": 1183,
      "der": 1184,
      "round": 1185,
      "lection": 1186,
      "Ġsp": 1187,
      "roll": 1188,
      "ope": 1189,
      "Se": 1190,
      "plic": 1191,
      "ĠIf": 1192,
      "ify": 1193,
      "Ñģ": 1194,
      "http": 1195,
      "yle": 1196,
      "OR": 1197,
      "Ġassert": 1198,
      "comm": 1199,
      "rem": 1200,
      "code": 1201,
      "work": 1202,
      "sub": 1203,
      "Qu": 1204,
      "CREATE": 1205,
      "SELECT": 1206,
      "ople": 1207,
      "text": 1208,
      "ĊĊĠĠĠĠĠĠĠĠĠĠĠ": 1209,
      "velo": 1210,
      "Ġkn": 1211,
      "Ġtrans": 1212,
      "Ð¾Ð": 1213,
      "Ġbet": 1214,
      "reat": 1215,
      "inter": 1216,
      "oug": 1217,
      "Equal": 1218,
      "ĊĉĠĠĠ": 1219,
      "ffect": 1220,
      "dd": 1221,
      "Str": 1222,
      "?:": 1223,
      "Ġstart": 1224,
      "att": 1225,
      "time": 1226,
      "ocument": 1227,
      "Ġ\\": 1228,
      "create": 1229,
      "alth": 1230,
      "Ġour": 1231,
      "ern": 1232,
      "Ġwor": 1233,
      "Element": 1234,
      "ĊĉĠ": 1235,
      "Ġthese": 1236,
      "AN": 1237,
      "Ġ__": 1238,
      "lean": 1239,
      "Event": 1240,
      "append": 1241,
      "itle": 1242,
      "ask": 1243,
      "unc": 1244,
      "Ġlike": 1245,
      "item": 1246,
      "config": 1247,
      "mp": 1248,
      "Ġhow": 1249,
      "Value": 1250,
      "oid": 1251,
      "ures": 1252,
      "ĠUn": 1253,
      "ices": 1254,
      "wo": 1255,
      "div": 1256,
      "Ġneed": 1257,
      "Ġsa": 1258,
      "push": 1259,
      "ier": 1260,
      "Ġph": 1261,
      "view": 1262,
      "ature": 1263,
      ">)": 1264,
      "Ġint": 1265,
      "play": 1266,
      "](<": 1267,
      "ilter": 1268,
      "Ġ/**": 1269,
      "Ġpath": 1270,
      "indow": 1271,
      "uff": 1272,
      "man": 1273,
      "ãĤ": 1274,
      "Ġatt": 1275,
      "/**": 1276,
      "new": 1277,
      "action": 1278,
      "totype": 1279,
      "ĊĠĠĠĠĠĠĠĠĠĠĠĠĠ": 1280,
      "rough": 1281,
      "Ġend": 1282,
      "ble": 1283,
      "ypes": 1284,
      "Ġfe": 1285,
      "als": 1286,
      "dis": 1287,
      "ĠPro": 1288,
      "ider": 1289,
      "Ġoff": 1290,
      "Ġuser": 1291,
      "fr": 1292,
      "HER": 1293,
      "Ġpeople": 1294,
      "ĊĊĠĠĠĠĠ": 1295,
      "Sc": 1296,
      "</": 1297,
      "ache": 1298,
      "rol": 1299,
      "node": 1300,
      "defined": 1301,
      "init": 1302,
      "riv": 1303,
      "Ġlog": 1304,
      "Ġhad": 1305,
      "Ġam": 1306,
      "Ġmost": 1307,
      "fore": 1308,
      "Ġwould": 1309,
      "lob": 1310,
      "Ġelement": 1311,
      "event": 1312,
      "start": 1313,
      "ĠWh": 1314,
      "velop": 1315,
      "state": 1316,
      "Ġcons": 1317,
      "Ġhand": 1318,
      "model": 1319,
      "Ġdist": 1320,
      "net": 1321,
      "options": 1322,
      "py": 1323,
      "ines": 1324,
      "red": 1325,
      "Ġsuch": 1326,
      "sy": 1327,
      "ript": 1328,
      "ãĥ": 1329,
      "Ġhelp": 1330,
      "ĠLicense": 1331,
      "Ġent": 1332,
      "ĠAr": 1333,
      "ponent": 1334,
      "ler": 1335,
      "gram": 1336,
      "Ġac": 1337,
      "Object": 1338,
      "});": 1339,
      "ateg": 1340,
      "press": 1341,
      "Ġca": 1342,
      "ally": 1343,
      "ade": 1344,
      "\";": 1345,
      "result": 1346,
      "struct": 1347,
      "pend": 1348,
      "ĊĠĠĠĠĠĠĠĠĠĠĠĠĠĠĠĠĠĠĠĠĠĠĠĠĠĠĠ": 1349,
      "ait": 1350,
      "https": 1351,
      "rap": 1352,
      "err": 1353,
      "prototype": 1354,
      "Ġcal": 1355,
      "([": 1356,
      "ten": 1357,
      "Ġdefault": 1358,
      "Ġfl": 1359,
      "Ġcurrent": 1360,
      "fe": 1361,
      "Ġhigh": 1362,
      "ract": 1363,
      "Ġ(!": 1364,
      "Ġmake": 1365,
      "Ġsystem": 1366,
      "ased": 1367,
      "Ġmethod": 1368,
      "Ġ--": 1369,
      "org": 1370,
      "...": 1371,
      "ref": 1372,
      "Class": 1373,
      "ervice": 1374,
      "Ġwhat": 1375,
      "HERE": 1376,
      "reg": 1377,
      "atic": 1378,
      "ĠĠĠĠĠĠ": 1379,
      "rite": 1380,
      "field": 1381,
      "Ġdiffer": 1382,
      "Ġitem": 1383,
      "Ġconfig": 1384,
      "ists": 1385,
      "Int": 1386,
      "co": 1387,
      "Ġthrough": 1388,
      "ĠEx": 1389,
      "ts": 1390,
      "Ġser": 1391,
      "util": 1392,
      "ĠSe": 1393,
      "ants": 1394,
      "Ġu": 1395,
      "Ċĉĉĉĉĉĉ": 1396,
      "lish": 1397,
      "ower": 1398,
      "Ġaw": 1399,
      "ĠWHERE": 1400,
      "lay": 1401,
      "ember": 1402,
      "Ġmodel": 1403,
      "vir": 1404,
      "cent": 1405,
      "Ġrequest": 1406,
      "Ġmin": 1407,
      "Col": 1408,
      "uring": 1409,
      "cond": 1410,
      "Ġread": 1411,
      "String": 1412,
      "Ġcomp": 1413,
      "atter": 1414,
      "Ġacc": 1415,
      "Ġinst": 1416,
      "ons": 1417,
      "ote": 1418,
      "Ġtwo": 1419,
      "Ġco": 1420,
      "very": 1421,
      "Ġ+=": 1422,
      "default": 1423,
      "He": 1424,
      "Ġfound": 1425,
      "word": 1426,
      "ween": 1427,
      "db": 1428,
      "place": 1429,
      "Key": 1430,
      "jo": 1431,
      "wn": 1432,
      "Ġ!==": 1433,
      "ose": 1434,
      "raph": 1435,
      "IM": 1436,
      "ational": 1437,
      "Ġerror": 1438,
      "iet": 1439,
      "serv": 1440,
      "ouse": 1441,
      "ĠWe": 1442,
      "Ġprint": 1443,
      "Node": 1444,
      "').": 1445,
      "Ġfr": 1446,
      "Ġmany": 1447,
      "Ġgener": 1448,
      "vol": 1449,
      "html": 1450,
      "Ġtem": 1451,
      "ized": 1452,
      "ĠCom": 1453,
      "None": 1454,
      "Ġ]": 1455,
      "Query": 1456,
      "mit": 1457,
      "Ġed": 1458,
      "'t": 1459,
      "Ġtry": 1460,
      "formation": 1461,
      "az": 1462,
      "ced": 1463,
      "Ġnode": 1464,
      "Ġz": 1465,
      "ape": 1466,
      "Ġav": 1467,
      "Ġcheck": 1468,
      "ĠAN": 1469,
      "br": 1470,
      "face": 1471,
      "Ġafter": 1472,
      "Ġwhere": 1473,
      "Time": 1474,
      "Ġtext": 1475,
      "gle": 1476,
      "che": 1477,
      "ĠTrue": 1478,
      "().": 1479,
      "ribute": 1480,
      "map": 1481,
      "++": 1482,
      "():": 1483,
      "\"\"\"": 1484,
      "ough": 1485,
      "info": 1486,
      "resent": 1487,
      "ful": 1488,
      "by": 1489,
      "Ġcreate": 1490,
      "OU": 1491,
      "Ċĉĉĉĉĉ": 1492,
      "the": 1493,
      "obj": 1494,
      "Ġsm": 1495,
      "sl": 1496,
      "ĠâĢĵ": 1497,
      "ution": 1498,
      "mb": 1499,
      "Ġbre": 1500,
      "rc": 1501,
      "Ġfield": 1502,
      "Array": 1503,
      "Ġgo": 1504,
      "State": 1505,
      "Index": 1506,
      "Ġdoes": 1507,
      "ars": 1508,
      "EX": 1509,
      "Ġext": 1510,
      "Ġgroup": 1511,
      ";;": 1512,
      "Ġback": 1513,
      "Ġdevelop": 1514,
      "sign": 1515,
      "ION": 1516,
      "plo": 1517,
      "lose": 1518,
      "Ġeach": 1519,
      "Ġprovide": 1520,
      "nal": 1521,
      "method": 1522,
      "plate": 1523,
      "arm": 1524,
      "gan": 1525,
      "let": 1526,
      "Ġcontain": 1527,
      "attr": 1528,
      "ited": 1529,
      "ÃĲ": 1530,
      "Ġrun": 1531,
      "Ġsim": 1532,
      "ĊĠĠĠĠĠĠĠĠĠĠĠĠĠĠĠĠĠĠĠĠĠĠĠĠĠĠĠĠĠĠĠĠ": 1533,
      "valid": 1534,
      "ified": 1535,
      "à¸": 1536,
      "Field": 1537,
      "nder": 1538,
      "arn": 1539,
      "ural": 1540,
      "Ġgr": 1541,
      "erson": 1542,
      "ream": 1543,
      "Ġwell": 1544,
      "Ġsee": 1545,
      "Item": 1546,
      "trans": 1547,
      "ank": 1548,
      "Ġbetween": 1549,
      "ctions": 1550,
      "ife": 1551,
      "\"]": 1552,
      "Ġlet": 1553,
      "ollow": 1554,
      "ols": 1555,
      "ware": 1556,
      "AM": 1557,
      "max": 1558,
      "Wh": 1559,
      "ĠHe": 1560,
      "Text": 1561,
      "const": 1562,
      "Ġcontext": 1563,
      "uments": 1564,
      "ily": 1565,
      "md": 1566,
      "Par": 1567,
      "Ġmust": 1568,
      "lete": 1569,
      "Ġsur": 1570,
      "input": 1571,
      "olic": 1572,
      "ann": 1573,
      "Ġhtt": 1574,
      "IC": 1575,
      "Ġdirect": 1576,
      "www": 1577,
      "uch": 1578,
      "off": 1579,
      "Ġpass": 1580,
      "Ġline": 1581,
      "Ġresponse": 1582,
      "Ġlevel": 1583,
      "Ð»": 1584,
      "Ġwhile": 1585,
      "amp": 1586,
      "Set": 1587,
      "format": 1588,
      "Ġmet": 1589,
      "cause": 1590,
      "De": 1591,
      "Ġright": 1592,
      "Ġsign": 1593,
      "Ġmed": 1594,
      "By": 1595,
      "Ġjust": 1596,
      "(),": 1597,
      "other": 1598,
      "itor": 1599,
      "air": 1600,
      "cur": 1601,
      "Ġcould": 1602,
      "viron": 1603,
      "select": 1604,
      "ustom": 1605,
      "Ġnum": 1606,
      "ĊĉĠĠĠĠĠĠĠĠ": 1607,
      "DE": 1608,
      "group": 1609,
      "__(": 1610,
      "iable": 1611,
      "pack": 1612,
      "){": 1613,
      "Ġusing": 1614,
      "Ġshow": 1615,
      "lear": 1616,
      "raw": 1617,
      "ually": 1618,
      "Ġbecause": 1619,
      "////": 1620,
      "ĠCon": 1621,
      "Ġ!=": 1622,
      "Ġlong": 1623,
      "uration": 1624,
      "ience": 1625,
      "ically": 1626,
      "AS": 1627,
      "Ġbefore": 1628,
      "Test": 1629,
      "Ġmon": 1630,
      "Ġprocess": 1631,
      "ric": 1632,
      "ved": 1633,
      "Ġsame": 1634,
      "assertEqual": 1635,
      "met": 1636,
      "ync": 1637,
      "Ġsupport": 1638,
      "rop": 1639,
      "erg": 1640,
      "uffer": 1641,
      "Ġfind": 1642,
      "Ġos": 1643,
      "################": 1644,
      "Ġcor": 1645,
      "Ġins": 1646,
      "logy": 1647,
      "ken": 1648,
      "check": 1649,
      "ting": 1650,
      "ET": 1651,
      "ats": 1652,
      "Ġfollow": 1653,
      "content": 1654,
      "Ġyears": 1655,
      "pace": 1656,
      "her": 1657,
      "Ġ{'": 1658,
      "File": 1659,
      "Ġwater": 1660,
      "ential": 1661,
      "ision": 1662,
      "ency": 1663,
      "mon": 1664,
      "status": 1665,
      "Ġeven": 1666,
      "Ġmy": 1667,
      "enu": 1668,
      "ception": 1669,
      "update": 1670,
      "wh": 1671,
      "ives": 1672,
      "call": 1673,
      "Ġcountry": 1674,
      "nect": 1675,
      "miss": 1676,
      "Ġpoint": 1677,
      "Ġher": 1678,
      "Ġ['": 1679,
      "host": 1680,
      "Ġhealth": 1681,
      "Ġknow": 1682,
      "chem": 1683,
      "Ġbuild": 1684,
      "oolean": 1685,
      "ik": 1686,
      "LO": 1687,
      "ism": 1688,
      "imes": 1689,
      "parent": 1690,
      "run": 1691,
      "Ġcallback": 1692,
      "bug": 1693,
      "ĠFalse": 1694,
      "Ġdifferent": 1695,
      "bs": 1696,
      "meric": 1697,
      "Ġfact": 1698,
      "Ġinformation": 1699,
      "ags": 1700,
      "Ġart": 1701,
      "order": 1702,
      "Ġinput": 1703,
      "Ġcontin": 1704,
      "Ġindex": 1705,
      "amet": 1706,
      "Ġinit": 1707,
      "aj": 1708,
      "lobal": 1709,
      "Ġtarget": 1710,
      "remove": 1711,
      "Ġlen": 1712,
      "})": 1713,
      "Ġcent": 1714,
      "Un": 1715,
      "UR": 1716,
      "Ġcode": 1717,
      "my": 1718,
      "umn": 1719,
      "Ġraise": 1720,
      "Path": 1721,
      "element": 1722,
      "request": 1723,
      "())": 1724,
      "point": 1725,
      "Ġsource": 1726,
      "Ġlast": 1727,
      "ization": 1728,
      "ED": 1729,
      "ãĢ": 1730,
      "Sh": 1731,
      "Ġdi": 1732,
      "ever": 1733,
      "plit": 1734,
      "Ġmatch": 1735,
      "Ġsk": 1736,
      "Of": 1737,
      "idd": 1738,
      "ĠFor": 1739,
      "ared": 1740,
      "Ġdisc": 1741,
      "git": 1742,
      "Ã©": 1743,
      "ply": 1744,
      "Ġind": 1745,
      "UP": 1746,
      "Ġchildren": 1747,
      "ted": 1748,
      "Ġbody": 1749,
      "((": 1750,
      "iter": 1751,
      "Ġinstance": 1752,
      "Ġop": 1753,
      "Ġref": 1754,
      "Ġnext": 1755,
      "ï¼": 1756,
      "Ġproject": 1757,
      "ails": 1758,
      "Ġlib": 1759,
      "has": 1760,
      "ward": 1761,
      "ename": 1762,
      "uthor": 1763,
      "Ġ})": 1764,
      "Ġmain": 1765,
      "Ġincre": 1766,
      "ML": 1767,
      "instance": 1768,
      "expect": 1769,
      "ister": 1770,
      "med": 1771,
      "vice": 1772,
      "Ġes": 1773,
      "Ġundefined": 1774,
      "iven": 1775,
      "rict": 1776,
      "Ġway": 1777,
      "itions": 1778,
      "Ġurl": 1779,
      "Ġdon": 1780,
      "Ġselect": 1781,
      "fix": 1782,
      "day": 1783,
      "Ġter": 1784,
      "find": 1785,
      "Ġcomple": 1786,
      ",\"": 1787,
      "Ġeffect": 1788,
      "'],": 1789,
      "Ġmod": 1790,
      "${": 1791,
      "api": 1792,
      "ivers": 1793,
      "Ġevery": 1794,
      "join": 1795,
      "current": 1796,
      "bin": 1797,
      "Le": 1798,
      "*)": 1799,
      "Ġprodu": 1800,
      "OM": 1801,
      "li": 1802,
      "Ġexample": 1803,
      "Ap": 1804,
      "link": 1805,
      "target": 1806,
      "Ġarray": 1807,
      "ume": 1808,
      "bers": 1809,
      "lem": 1810,
      "version": 1811,
      "ets": 1812,
      "base": 1813,
      "Ġbeing": 1814,
      "Ġworld": 1815,
      "Ġcall": 1816,
      "ĠAn": 1817,
      "aking": 1818,
      "part": 1819,
      "Ġmessage": 1820,
      "Date": 1821,
      "imate": 1822,
      "dict": 1823,
      "Ġdocument": 1824,
      "Ġallow": 1825,
      "Ġprogram": 1826,
      ".$": 1827,
      "ä¸": 1828,
      "ĠYou": 1829,
      "ĊĠĠĠĠĠĠĠĠĠĠĠĠĠĠĠĠĠĠĠĠĠĠĠĠĠĠĠĠĠĠĠĠĠĠĠĠĠĠĠĠ": 1830,
      "Ġmax": 1831,
      "ands": 1832,
      "rans": 1833,
      "\",\"": 1834,
      "False": 1835,
      "Ġoutput": 1836,
      "Ġ**": 1837,
      "til": 1838,
      "AP": 1839,
      "ĠBY": 1840,
      "Ðº": 1841,
      "echo": 1842,
      "Ġparent": 1843,
      "ron": 1844,
      "Ġvery": 1845,
      "pty": 1846,
      "ords": 1847,
      "ince": 1848,
      "Up": 1849,
      "thon": 1850,
      "rivate": 1851,
      "Ġwrit": 1852,
      "less": 1853,
      "parse": 1854,
      "tect": 1855,
      "ui": 1856,
      "ather": 1857,
      "ness": 1858,
      "Ġlarg": 1859,
      "query": 1860,
      "Ġpop": 1861,
      "vironment": 1862,
      "IS": 1863,
      "Ġresearch": 1864,
      "istory": 1865,
      "ĠAmeric": 1866,
      "Ġshe": 1867,
      "Ġorder": 1868,
      "--------------------------------": 1869,
      "uto": 1870,
      "Ġexcept": 1871,
      "Ġthose": 1872,
      "label": 1873,
      "Im": 1874,
      "tings": 1875,
      "Ġhum": 1876,
      "bar": 1877,
      "Ġview": 1878,
      "ĊĠĠĠĠĠĠĠĠĠĠĠĠĠĠĠĠĠĠ": 1879,
      "Ġchar": 1880,
      "web": 1881,
      "Ġinclude": 1882,
      "num": 1883,
      "Ġear": 1884,
      "me": 1885,
      "Ġbr": 1886,
      "ĠAl": 1887,
      "ources": 1888,
      "Ġopen": 1889,
      "={": 1890,
      "sw": 1891,
      "Ġvalues": 1892,
      "abled": 1893,
      "Ġpublic": 1894,
      "Ġversion": 1895,
      "./": 1896,
      "sible": 1897,
      "sole": 1898,
      "ĠAND": 1899,
      "Ġproduct": 1900,
      "ries": 1901,
      "Ġmodule": 1902,
      "\">": 1903,
      "à¤": 1904,
      "Ġcar": 1905,
      "EXT": 1906,
      "ane": 1907,
      "HT": 1908,
      "ender": 1909,
      ".\"": 1910,
      "perties": 1911,
      "Ġoper": 1912,
      "This": 1913,
      "Ġpartic": 1914,
      "AC": 1915,
      "client": 1916,
      "View": 1917,
      "Ġ[]": 1918,
      ".__": 1919,
      "ava": 1920,
      "romise": 1921,
      "ids": 1922,
      "ING": 1923,
      "array": 1924,
      "Ġcause": 1925,
      "message": 1926,
      "anc": 1927,
      "aders": 1928,
      "eturn": 1929,
      "Ġnp": 1930,
      "gs": 1931,
      "rel": 1932,
      "Def": 1933,
      "output": 1934,
      "á»": 1935,
      "scope": 1936,
      "tx": 1937,
      "ĠDe": 1938,
      "imit": 1939,
      "ah": 1940,
      "ager": 1941,
      "Ġnow": 1942,
      "Ġsoc": 1943,
      "Ġbl": 1944,
      "Ñĥ": 1945,
      "pts": 1946,
      "Ġold": 1947,
      "ek": 1948,
      "\\\\": 1949,
      "child": 1950,
      "ulation": 1951,
      "su": 1952,
      "AD": 1953,
      "require": 1954,
      "Ġtech": 1955,
      "Ġchang": 1956,
      "Ġcommun": 1957,
      "ĠAp": 1958,
      "show": 1959,
      "body": 1960,
      "Ġ{}": 1961,
      "arning": 1962,
      ".,": 1963,
      "Ġargs": 1964,
      "af": 1965,
      "Ġlow": 1966,
      "box": 1967,
      "Options": 1968,
      "For": 1969,
      "Ġvis": 1970,
      "Ġret": 1971,
      "context": 1972,
      "hand": 1973,
      "Ġduring": 1974,
      "ainer": 1975,
      "len": 1976,
      "wargs": 1977,
      "ences": 1978,
      "number": 1979,
      "Ġdec": 1980,
      "sess": 1981,
      "Ġperson": 1982,
      "Ġwithout": 1983,
      "We": 1984,
      "ital": 1985,
      "Ø§": 1986,
      "Ġtop": 1987,
      "rl": 1988,
      "write": 1989,
      "ĠAs": 1990,
      "****************": 1991,
      "Ġagain": 1992,
      "Ġown": 1993,
      "Ġsize": 1994,
      "equal": 1995,
      "Ġsett": 1996,
      "An": 1997,
      "ailable": 1998,
      "Ġboth": 1999,
      "Be": 2000,
      "come": 2001,
      "ĠInt": 2002,
      "ango": 2003,
      "Add": 2004,
      "Form": 2005,
      "NT": 2006,
      "title": 2007,
      "Ġchange": 2008,
      "response": 2009,
      "filter": 2010,
      "json": 2011,
      "On": 2012,
      "aterial": 2013,
      "Ġplay": 2014,
      "Ġexper": 2015,
      "lease": 2016,
      "/*": 2017,
      "Ġbreak": 2018,
      "ĊĉĠĠĠĠĠ": 2019,
      "Ġproble": 2020,
      "apt": 2021,
      "Ġrange": 2022,
      "ends": 2023,
      "Ġorig": 2024,
      ".âĢĿ": 2025,
      "Ġns": 2026,
      "ident": 2027,
      "\"].": 2028,
      "ference": 2029,
      "top": 2030,
      "ique": 2031,
      "================": 2032,
      "rain": 2033,
      "vert": 2034,
      "ĊĠĠĠĠĠĠĠĠĠĠĠĠ": 2035,
      "Ġlocal": 2036,
      "Config": 2037,
      "Ġdr": 2038,
      "UT": 2039,
      "Ġvoid": 2040,
      "plication": 2041,
      "root": 2042,
      "Ġimportant": 2043,
      "=\"$": 2044,
      "Count": 2045,
      "ready": 2046,
      "comp": 2047,
      "Ġcalled": 2048,
      "Model": 2049,
      "Ġfam": 2050,
      "width": 2051,
      "son": 2052,
      "Ġlook": 2053,
      "Ġcond": 2054,
      "loat": 2055,
      "Ġdown": 2056,
      "ium": 2057,
      "Ġobj": 2058,
      "uc": 2059,
      "Ġgre": 2060,
      "Al": 2061,
      "Ġlife": 2062,
      "spec": 2063,
      "][": 2064,
      "akes": 2065,
      "ormal": 2066,
      "jango": 2067,
      "Ġsol": 2068,
      "Ġmuch": 2069,
      "ox": 2070,
      "Ġcell": 2071,
      "utils": 2072,
      "Att": 2073,
      "bl": 2074,
      "uf": 2075,
      "Ġappro": 2076,
      "itch": 2077,
      "ĊĊĉĉ": 2078,
      "acter": 2079,
      "Ġgiven": 2080,
      "ves": 2081,
      "Ġsaid": 2082,
      "Ġ;;": 2083,
      "Ġday": 2084,
      "Ġhttp": 2085,
      "icle": 2086,
      "tal": 2087,
      "ilt": 2088,
      "structor": 2089,
      "Ġbase": 2090,
      "Ġ[],": 2091,
      "Ġstudents": 2092,
      "ason": 2093,
      "Pos": 2094,
      "match": 2095,
      "idget": 2096,
      "''": 2097,
      "inst": 2098,
      "ftware": 2099,
      "Ġreport": 2100,
      "(_": 2101,
      "ĠSh": 2102,
      "sel": 2103,
      "page": 2104,
      "Ġmade": 2105,
      "Ġcontent": 2106,
      "stand": 2107,
      "UM": 2108,
      "All": 2109,
      "Ġpo": 2110,
      "ourse": 2111,
      "ĠThey": 2112,
      "Service": 2113,
      "ĠX": 2114,
      "null": 2115,
      "Ġsl": 2116,
      "andom": 2117,
      "Ġexpected": 2118,
      "Man": 2119,
      "Ġregion": 2120,
      "Ġcur": 2121,
      "Ġmark": 2122,
      "Ġnon": 2123,
      "params": 2124,
      "ategory": 2125,
      "chool": 2126,
      "resh": 2127,
      "overn": 2128,
      "OT": 2129,
      "ped": 2130,
      "ement": 2131,
      "Ġet": 2132,
      "sp": 2133,
      "Ġfood": 2134,
      "ability": 2135,
      "ross": 2136,
      "Ġmem": 2137,
      "thing": 2138,
      "ither": 2139,
      "../": 2140,
      "active": 2141,
      "Ġest": 2142,
      "Ġgood": 2143,
      "next": 2144,
      "ading": 2145,
      "Ġawait": 2146,
      "Ġhere": 2147,
      "Ġcontrol": 2148,
      "do": 2149,
      "models": 2150,
      "Select": 2151,
      "iled": 2152,
      "ĊĠĠĠĠĠĠĠĠĠĠĠĠĠĠĠĠĠĠĠĠĠĠĠĠĠĠĠĠĠĠĠ": 2153,
      "Ġident": 2154,
      "olicy": 2155,
      "Ġelif": 2156,
      "post": 2157,
      "As": 2158,
      "annel": 2159,
      "nection": 2160,
      "ification": 2161,
      "Ġcopy": 2162,
      "table": 2163,
      "Script": 2164,
      "OD": 2165,
      "Ġrest": 2166,
      "AG": 2167,
      "ites": 2168,
      "Ġrep": 2169,
      "Ġactiv": 2170,
      "Map": 2171,
      "Ġresults": 2172,
      "exports": 2173,
      "omet": 2174,
      "oogle": 2175,
      "ta": 2176,
      "'):": 2177,
      "Val": 2178,
      "Ġwant": 2179,
      "uid": 2180,
      "Ġoption": 2181,
      "Ġpost": 2182,
      "Request": 2183,
      "image": 2184,
      "ived": 2185,
      "Get": 2186,
      "Ġgrow": 2187,
      "Ġorgan": 2188,
      "func": 2189,
      "irc": 2190,
      "uding": 2191,
      "dom": 2192,
      "Ġ>>": 2193,
      "Ġdone": 2194,
      "print": 2195,
      "ĠCl": 2196,
      "open": 2197,
      "Ġpower": 2198,
      "split": 2199,
      "ĠQ": 2200,
      "style": 2201,
      "vious": 2202,
      "replace": 2203,
      "At": 2204,
      "Ġtake": 2205,
      "Ġimage": 2206,
      "ĊĊĠĠĠĠĠĠĠĠĠĠĠĠĠĠĠ": 2207,
      "Ġsmall": 2208,
      "vest": 2209,
      "Ġsecond": 2210,
      "ension": 2211,
      "sg": 2212,
      "Ñı": 2213,
      "Ġocc": 2214,
      "true": 2215,
      "But": 2216,
      "AA": 2217,
      "Ġparams": 2218,
      "Ġvalid": 2219,
      "Ġreal": 2220,
      "source": 2221,
      "acc": 2222,
      "Ġdate": 2223,
      "Ġcommon": 2224,
      "itional": 2225,
      "Ġlocation": 2226,
      "Ġrequired": 2227,
      "patch": 2228,
      "``": 2229,
      "Fr": 2230,
      "isease": 2231,
      "pression": 2232,
      "orage": 2233,
      "yn": 2234,
      "ĠNew": 2235,
      "orn": 2236,
      "rary": 2237,
      "ocus": 2238,
      "Ġke": 2239,
      "ination": 2240,
      "Ġstudy": 2241,
      "iversity": 2242,
      "oci": 2243,
      "ĠHow": 2244,
      "Ġless": 2245,
      "ains": 2246,
      "ories": 2247,
      "ublish": 2248,
      "roller": 2249,
      "itive": 2250,
      "Ġpol": 2251,
      "Ð°Ð": 2252,
      "Ġpage": 2253,
      "ene": 2254,
      "ĠTEXT": 2255,
      "Ġlink": 2256,
      "project": 2257,
      "Or": 2258,
      "ingle": 2259,
      "aster": 2260,
      "Code": 2261,
      "ux": 2262,
      "Ġvol": 2263,
      "Ñĭ": 2264,
      "uro": 2265,
      "src": 2266,
      "with": 2267,
      "alk": 2268,
      "chema": 2269,
      "Ġplace": 2270,
      "gin": 2271,
      "ift": 2272,
      "rapper": 2273,
      "ole": 2274,
      "*/": 2275,
      "adata": 2276,
      "ĠOR": 2277,
      "Ġwindow": 2278,
      "DI": 2279,
      "iod": 2280,
      "Ġmult": 2281,
      "plement": 2282,
      "Ġexist": 2283,
      "ee": 2284,
      "Size": 2285,
      "Ġupdate": 2286,
      "ips": 2287,
      "ĠZ": 2288,
      "ĠSc": 2289,
      "\").": 2290,
      "ĠĊĠĠĠĠĠĠĠĠĠĠĠĠĠĠĠĠĠĠ": 2291,
      "Ġfunc": 2292,
      "IL": 2293,
      "Ġpat": 2294,
      "Width": 2295,
      "ging": 2296,
      "ott": 2297,
      "||": 2298,
      "hel": 2299,
      "]);": 2300,
      "Ġfi": 2301,
      "Response": 2302,
      "Hand": 2303,
      "land": 2304,
      "omen": 2305,
      "outh": 2306,
      "Ġdid": 2307,
      "cer": 2308,
      "Ġoften": 2309,
      "gress": 2310,
      "With": 2311,
      "Ġaround": 2312,
      "Ġdesign": 2313,
      "Ġcr": 2314,
      "rip": 2315,
      "ENT": 2316,
      "ilename": 2317,
      "ways": 2318,
      "Pl": 2319,
      "ugin": 2320,
      "rec": 2321,
      "older": 2322,
      "Ġredu": 2323,
      "Info": 2324,
      "Ġcap": 2325,
      "position": 2326,
      "doc": 2327,
      "rigger": 2328,
      "Ġdistribut": 2329,
      "Ġnet": 2330,
      "Url": 2331,
      "aces": 2332,
      "ROUP": 2333,
      "Ġsw": 2334,
      "oh": 2335,
      "olve": 2336,
      "ond": 2337,
      "core": 2338,
      "Property": 2339,
      "vid": 2340,
      "Child": 2341,
      "Ġroot": 2342,
      "mod": 2343,
      "Ġtrack": 2344,
      "Ġport": 2345,
      "Ġaction": 2346,
      "Ġfull": 2347,
      "ĊĠĠĠĠĠĠ": 2348,
      "Ġtotal": 2349,
      "grup": 2350,
      "rect": 2351,
      "ython": 2352,
      "ĊĉĠĠĠĠĠĠĠ": 2353,
      "User": 2354,
      "vis": 2355,
      "Ġspe": 2356,
      "ma": 2357,
      "UL": 2358,
      "Ġsuccess": 2359,
      "pass": 2360,
      "Ġmove": 2361,
      "Ġwithin": 2362,
      "FI": 2363,
      "then": 2364,
      "Ġenvironment": 2365,
      "isk": 2366,
      "files": 2367,
      "build": 2368,
      "Ġanim": 2369,
      "Ġtreat": 2370,
      "Ġlabel": 2371,
      "server": 2372,
      "XX": 2373,
      "ior": 2374,
      "Group": 2375,
      "ĠBut": 2376,
      "Ã¡": 2377,
      "anch": 2378,
      "ipe": 2379,
      "iety": 2380,
      "ÐµÐ": 2381,
      "mand": 2382,
      "Ġaccess": 2383,
      "ĊĠĠĠĠĠĠĠĠĠĠĠĠĠĠĠĠĠ": 2384,
      "Ġve": 2385,
      "Ġthree": 2386,
      "yh": 2387,
      "fields": 2388,
      "Ġla": 2389,
      "Ġpres": 2390,
      "ients": 2391,
      "Trans": 2392,
      "Ġstill": 2393,
      "Ġsever": 2394,
      "Ġhuman": 2395,
      "oot": 2396,
      "ĠOn": 2397,
      "mode": 2398,
      "Ġincluding": 2399,
      "Ġbeh": 2400,
      "ctor": 2401,
      "\".": 2402,
      "tain": 2403,
      "ĠAll": 2404,
      "Ġtoo": 2405,
      "ty": 2406,
      "\"),": 2407,
      "Ġexec": 2408,
      "Ġlaw": 2409,
      "down": 2410,
      "ru": 2411,
      "Ġeither": 2412,
      "asses": 2413,
      "ĠGROUP": 2414,
      "gruppen": 2415,
      "Ġquery": 2416,
      "idual": 2417,
      "'))": 2418,
      "tag": 2419,
      "Ġcls": 2420,
      "ether": 2421,
      "member": 2422,
      "Ġdisease": 2423,
      "arr": 2424,
      "Ob": 2425,
      "Ġavailable": 2426,
      "Ġrece": 2427,
      "âĢĶ": 2428,
      "verse": 2429,
      "mark": 2430,
      "process": 2431,
      "Ġdest": 2432,
      "Ġmap": 2433,
      "css": 2434,
      "Ġblock": 2435,
      "case": 2436,
      "ched": 2437,
      "Ġdescri": 2438,
      "bind": 2439,
      "local": 2440,
      "ĠDATE": 2441,
      "Ġfollowing": 2442,
      "ators": 2443,
      "ird": 2444,
      "abs": 2445,
      "ances": 2446,
      "Ġarguments": 2447,
      "Ġrow": 2448,
      "Ġstatus": 2449,
      "ls": 2450,
      "Ġteach": 2451,
      "Ġsuper": 2452,
      "amb": 2453,
      "Ġ[];": 2454,
      "Ġlanguage": 2455,
      "cket": 2456,
      "Ġbel": 2457,
      "ury": 2458,
      "Ġconsider": 2459,
      "Ryh": 2460,
      "EC": 2461,
      "height": 2462,
      "offset": 2463,
      "unk": 2464,
      "Ġlength": 2465,
      "orth": 2466,
      "should": 2467,
      "Ġ</": 2468,
      "Ġmight": 2469,
      "uss": 2470,
      "Ġproperty": 2471,
      "ĠAnd": 2472,
      "Ġprom": 2473,
      "store": 2474,
      "Ġlarge": 2475,
      "Number": 2476,
      "ploy": 2477,
      "ĠGener": 2478,
      "Content": 2479,
      "Ġì": 2480,
      "rist": 2481,
      "Ġtable": 2482,
      "ration": 2483,
      "Ġposition": 2484,
      "ina": 2485,
      "Ġver": 2486,
      "Ġ>=": 2487,
      "ially": 2488,
      "sup": 2489,
      "ĠThere": 2490,
      "Ġhim": 2491,
      "Result": 2492,
      "Ġtitle": 2493,
      "Ġmonth": 2494,
      "Ġmaterial": 2495,
      "Ġcare": 2496,
      "Ġpresent": 2497,
      "Context": 2498,
      "left": 2499,
      "Ġclient": 2500,
      "ports": 2501,
      "Ġfiles": 2502,
      "Ġcert": 2503,
      "Component": 2504,
      "ĠCol": 2505,
      "da": 2506,
      "'])": 2507,
      "inc": 2508,
      "Ġ$(": 2509,
      "Ġcolor": 2510,
      "debug": 2511,
      "ributes": 2512,
      "Ġide": 2513,
      "ĠReturn": 2514,
      "Ġexp": 2515,
      "change": 2516,
      "gen": 2517,
      "Ġ'/": 2518,
      "ĠInd": 2519,
      "now": 2520,
      "cmd": 2521,
      "ĠSo": 2522,
      "uture": 2523,
      "PO": 2524,
      "ĠPar": 2525,
      "Lo": 2526,
      "ffic": 2527,
      "Input": 2528,
      "Ġalready": 2529,
      "ameters": 2530,
      "atures": 2531,
      "Ġ,": 2532,
      "Ġapp": 2533,
      "Sub": 2534,
      "ergy": 2535,
      "Java": 2536,
      "âĢľ": 2537,
      "Ġgovern": 2538,
      "aving": 2539,
      "tes": 2540,
      "ours": 2541,
      "vider": 2542,
      "Ġthrow": 2543,
      "icon": 2544,
      "ĠTest": 2545,
      "Ġspecific": 2546,
      "ĠRes": 2547,
      "Ġquest": 2548,
      "ĠTo": 2549,
      "Ġanother": 2550,
      "sum": 2551,
      "Ġelect": 2552,
      "conom": 2553,
      "df": 2554,
      "âĢĵ": 2555,
      "Ġserv": 2556,
      "Ġpur": 2557,
      "aa": 2558,
      "Ġbro": 2559,
      "Ġdat": 2560,
      "plied": 2561,
      "oding": 2562,
      "Height": 2563,
      "block": 2564,
      "hem": 2565,
      "exec": 2566,
      "oms": 2567,
      "icult": 2568,
      "Ġcreated": 2569,
      "Ġleft": 2570,
      "cat": 2571,
      "close": 2572,
      "dest": 2573,
      "ugg": 2574,
      "Ġ##": 2575,
      "ording": 2576,
      "ining": 2577,
      "level": 2578,
      "++)": 2579,
      "($": 2580,
      "ifier": 2581,
      "ental": 2582,
      "Ġknown": 2583,
      "Ed": 2584,
      "Types": 2585,
      "ground": 2586,
      "asic": 2587,
      "Ġ${": 2588,
      "Ġconsole": 2589,
      "stru": 2590,
      "Âł": 2591,
      "ajor": 2592,
      "Ġbu": 2593,
      "Ġparse": 2594,
      "Ġdepend": 2595,
      "opt": 2596,
      "ling": 2597,
      "color": 2598,
      "Case": 2599,
      "ĠÐ¿": 2600,
      "Ġeas": 2601,
      "term": 2602,
      "year": 2603,
      "Ġstand": 2604,
      "command": 2605,
      "OUNT": 2606,
      "msg": 2607,
      "Ġnames": 2608,
      "Ġgen": 2609,
      "Ġhost": 2610,
      "Ser": 2611,
      "ym": 2612,
      "Not": 2613,
      "Out": 2614,
      ",âĢĿ": 2615,
      "Ġcustom": 2616,
      "Message": 2617,
      "location": 2618,
      "tle": 2619,
      "settings": 2620,
      "Ġcontinue": 2621,
      "side": 2622,
      "property": 2623,
      "pany": 2624,
      "Ġindiv": 2625,
      "Ġ{};": 2626,
      "Is": 2627,
      "Ġdiff": 2628,
      "ĠThese": 2629,
      "Ġpack": 2630,
      "ÑĮ": 2631,
      "\\\"": 2632,
      "erc": 2633,
      "ĠâĢĺ": 2634,
      "US": 2635,
      "Ġarea": 2636,
      "click": 2637,
      "Ġamount": 2638,
      "SON": 2639,
      "Ġeng": 2640,
      "xy": 2641,
      "fn": 2642,
      "sk": 2643,
      "Ġperform": 2644,
      "=$": 2645,
      "bed": 2646,
      "HE": 2647,
      "ĠObject": 2648,
      "env": 2649,
      "Ġlay": 2650,
      "orld": 2651,
      "ÑģÑĤ": 2652,
      "ql": 2653,
      "Ġpract": 2654,
      "yc": 2655,
      "example": 2656,
      "Ġbest": 2657,
      "Ġelem": 2658,
      "AME": 2659,
      "reate": 2660,
      "Ġrender": 2661,
      "leg": 2662,
      "Ġplan": 2663,
      "dev": 2664,
      "Ġgu": 2665,
      "clude": 2666,
      "mission": 2667,
      "Ġglobal": 2668,
      "pose": 2669,
      "Ġdet": 2670,
      "Ġcomput": 2671,
      "Ġ...": 2672,
      "Ġdom": 2673,
      "ĠMath": 2674,
      "names": 2675,
      "Ġland": 2676,
      "ialog": 2677,
      "Ġbased": 2678,
      "Ġant": 2679,
      "Ġenergy": 2680,
      "Ġfew": 2681,
      "foo": 2682,
      "ause": 2683,
      "lood": 2684,
      "TR": 2685,
      "Ġfree": 2686,
      "Log": 2687,
      "Ġthink": 2688,
      "Function": 2689,
      "bre": 2690,
      "thers": 2691,
      "Ġiss": 2692,
      "ĠEng": 2693,
      "Color": 2694,
      "items": 2695,
      "Button": 2696,
      "iving": 2697,
      "sv": 2698,
      "ialize": 2699,
      "sor": 2700,
      "Loc": 2701,
      "flow": 2702,
      "Ġcommand": 2703,
      "opyright": 2704,
      "Callback": 2705,
      "Ġunderstand": 2706,
      "Ġenc": 2707,
      "EM": 2708,
      "Ġcity": 2709,
      "ooks": 2710,
      "Ġsearch": 2711,
      "Ġconf": 2712,
      "Ġstruct": 2713,
      "Ġ],": 2714,
      "ards": 2715,
      "FA": 2716,
      "main": 2717,
      "Ġpot": 2718,
      "SS": 2719,
      "auth": 2720,
      "pri": 2721,
      "Page": 2722,
      "Ġpossible": 2723,
      "Ġhome": 2724,
      "typeof": 2725,
      "Ġanal": 2726,
      "ead": 2727,
      "option": 2728,
      "Ġindividual": 2729,
      "'.": 2730,
      "any": 2731,
      "report": 2732,
      "ules": 2733,
      "lot": 2734,
      "full": 2735,
      "From": 2736,
      "button": 2737,
      "ech": 2738,
      "kwargs": 2739,
      "Met": 2740,
      "success": 2741,
      "If": 2742,
      "OP": 2743,
      "else": 2744,
      "light": 2745,
      "delete": 2746,
      "Ġ/*": 2747,
      "Ġsince": 2748,
      "Ãĳ": 2749,
      "ĠSee": 2750,
      "ï¼Į": 2751,
      "Ġclear": 2752,
      "Ãł": 2753,
      "ai": 2754,
      "pg": 2755,
      "char": 2756,
      "agement": 2757,
      "PI": 2758,
      "values": 2759,
      "Default": 2760,
      "ĠCont": 2761,
      "Ġlater": 2762,
      "Each": 2763,
      "Ġage": 2764,
      "Ġinv": 2765,
      "tool": 2766,
      "keys": 2767,
      "Ġvariable": 2768,
      "ero": 2769,
      "Ġaccount": 2770,
      "Ġimp": 2771,
      "Ġextra": 2772,
      "////////": 2773,
      "iple": 2774,
      "Ġagainst": 2775,
      "Ġformat": 2776,
      "Ġlight": 2777,
      "Ġsocial": 2778,
      "Ġstore": 2779,
      "dat": 2780,
      "ĠWhen": 2781,
      "Ġsom": 2782,
      "Off": 2783,
      "Ġkeep": 2784,
      "ured": 2785,
      "Ġshort": 2786,
      "Ġmeans": 2787,
      "ride": 2788,
      "HTML": 2789,
      "product": 2790,
      "props": 2791,
      "Ġgreat": 2792,
      "Ġremove": 2793,
      "Ġfin": 2794,
      "por": 2795,
      "Ġappe": 2796,
      "Ġmode": 2797,
      "Ġstyle": 2798,
      "Ġservice": 2799,
      "ĠPl": 2800,
      "aded": 2801,
      "Ã³": 2802,
      "æľ": 2803,
      "nown": 2804,
      "FF": 2805,
      "gener": 2806,
      "And": 2807,
      "etime": 2808,
      "ouch": 2809,
      "Ġphys": 2810,
      "('.": 2811,
      "adi": 2812,
      "Start": 2813,
      "ograph": 2814,
      "'}": 2815,
      "åı": 2816,
      "Ġmeas": 2817,
      "It": 2818,
      "Ġboolean": 2819,
      "logical": 2820,
      "ANT": 2821,
      "lex": 2822,
      "Ġside": 2823,
      "ĠPh": 2824,
      "Ġtre": 2825,
      "book": 2826,
      "Ġimpro": 2827,
      "ĠOr": 2828,
      "iness": 2829,
      "Dis": 2830,
      "ica": 2831,
      "Check": 2832,
      "ensor": 2833,
      "Ġlearn": 2834,
      "ignore": 2835,
      "![": 2836,
      "px": 2837,
      "pop": 2838,
      "first": 2839,
      "Tra": 2840,
      "Ġdevelopment": 2841,
      "Ġschool": 2842,
      "Ð²": 2843,
      "window": 2844,
      "esc": 2845,
      "mbol": 2846,
      "static": 2847,
      "attern": 2848,
      "UN": 2849,
      "ogn": 2850,
      "Ġtypes": 2851,
      "ĠjQuery": 2852,
      "Ġben": 2853,
      "ship": 2854,
      "ailed": 2855,
      "Ġserver": 2856,
      "Ġhapp": 2857,
      "ĠIm": 2858,
      "ones": 2859,
      "oper": 2860,
      "Lay": 2861,
      "rid": 2862,
      "inary": 2863,
      "Ġinte": 2864,
      "Ġcollection": 2865,
      "reen": 2866,
      "connect": 2867,
      "Ġmock": 2868,
      "??": 2869,
      "Ent": 2870,
      "umb": 2871,
      "callback": 2872,
      "Ġfre": 2873,
      "Ġoffset": 2874,
      "End": 2875,
      "document": 2876,
      "iate": 2877,
      "iddle": 2878,
      "Ġsess": 2879,
      "Ġoriginal": 2880,
      "ĠUniversity": 2881,
      "Ġhistory": 2882,
      "atform": 2883,
      "ional": 2884,
      "Ġevents": 2885,
      "ibility": 2886,
      "Ġmus": 2887,
      "Point": 2888,
      "go": 2889,
      "ires": 2890,
      "los": 2891,
      "Ġaut": 2892,
      "Ġauthor": 2893,
      "ering": 2894,
      "ĠLe": 2895,
      "ĠCOUNT": 2896,
      "dist": 2897,
      "çļ": 2898,
      "ills": 2899,
      "aim": 2900,
      "Ġdisplay": 2901,
      "shape": 2902,
      "imary": 2903,
      "une": 2904,
      "Ġprevent": 2905,
      "icro": 2906,
      "IP": 2907,
      "Ġfore": 2908,
      "ÐµÐ½": 2909,
      "izer": 2910,
      "Ġbetter": 2911,
      "Module": 2912,
      "Ġcult": 2913,
      ".\"\"\"": 2914,
      "ĠAdd": 2915,
      "Ġpercent": 2916,
      "ĠØ": 2917,
      "ĠON": 2918,
      "Ġmean": 2919,
      "ulate": 2920,
      "Ġresource": 2921,
      "els": 2922,
      "cor": 2923,
      "exp": 2924,
      "Ġadv": 2925,
      "ops": 2926,
      "plib": 2927,
      "Ġinterest": 2928,
      "save": 2929,
      "each": 2930,
      "\"],": 2931,
      "ises": 2932,
      "proto": 2933,
      "Ġtag": 2934,
      "ustr": 2935,
      "ystem": 2936,
      "Ġsure": 2937,
      "eded": 2938,
      "can": 2939,
      "Ġchanges": 2940,
      "ias": 2941,
      "ĠAS": 2942,
      "çļĦ": 2943,
      "ĊĉĠĠĠĠĠĠĠĠĠĠĠ": 2944,
      "Ġpain": 2945,
      "Ġdescription": 2946,
      "ucation": 2947,
      "Ġsingle": 2948,
      "utes": 2949,
      "Table": 2950,
      "Ġmill": 2951,
      "ication": 2952,
      "Ġmodels": 2953,
      "ales": 2954,
      "Ġrisk": 2955,
      "acity": 2956,
      "Ġspace": 2957,
      "Base": 2958,
      "uggest": 2959,
      "essages": 2960,
      "Reg": 2961,
      "Ġsort": 2962,
      "Ġprof": 2963,
      "Attribute": 2964,
      "Ġassoci": 2965,
      "Ġtri": 2966,
      "std": 2967,
      "ians": 2968,
      "Ġleg": 2969,
      "posit": 2970,
      "ently": 2971,
      "dr": 2972,
      "false": 2973,
      "network": 2974,
      "Ġ>>>": 2975,
      "done": 2976,
      "tmp": 2977,
      "Ġdel": 2978,
      "only": 2979,
      "Ġax": 2980,
      "way": 2981,
      "Ġspecies": 2982,
      "EY": 2983,
      "direct": 2984,
      "django": 2985,
      "ething": 2986,
      "VG": 2987,
      "Ġfilter": 2988,
      "ads": 2989,
      "orks": 2990,
      "Ġperiod": 2991,
      "Ġtechno": 2992,
      "IG": 2993,
      "äº": 2994,
      "render": 2995,
      "token": 2996,
      "Ġabove": 2997,
      "Ġsum": 2998,
      "ached": 2999,
      "Ġalways": 3000,
      "rowser": 3001,
      "board": 3002,
      "oud": 3003,
      "ĉĉĉĉ": 3004,
      "ending": 3005,
      "Ġwomen": 3006,
      "ĠAmerican": 3007,
      "ĠâĢĶ": 3008,
      "urope": 3009,
      "åħ": 3010,
      "Ġpublish": 3011,
      "roy": 3012,
      "Ġexpl": 3013,
      "ral": 3014,
      "Ġwidth": 3015,
      "range": 3016,
      "Ġq": 3017,
      "river": 3018,
      "Ġ[\"": 3019,
      "Ġgl": 3020,
      "aut": 3021,
      "Ġtimes": 3022,
      "idden": 3023,
      "Ġlit": 3024,
      "Ġdoc": 3025,
      "ada": 3026,
      "Ġput": 3027,
      "atural": 3028,
      "Inter": 3029,
      "Ġmar": 3030,
      "udio": 3031,
      "ping": 3032,
      "ĠStr": 3033,
      "mock": 3034,
      "acy": 3035,
      "display": 3036,
      "nap": 3037,
      "send": 3038,
      "Ġfinal": 3039,
      "Ġdistributed": 3040,
      "Ġcourse": 3041,
      "ĠPromise": 3042,
      "áº": 3043,
      "struction": 3044,
      "Ġhard": 3045,
      "Ġcost": 3046,
      "OL": 3047,
      "mber": 3048,
      "Ad": 3049,
      "ESS": 3050,
      "Handler": 3051,
      "most": 3052,
      "returns": 3053,
      "Ġheight": 3054,
      "Ġdiv": 3055,
      "Ġdev": 3056,
      "Ġbecome": 3057,
      "Ġsoftware": 3058,
      "Ġinf": 3059,
      "Ġmajor": 3060,
      "Ġincrease": 3061,
      "Tok": 3062,
      "ought": 3063,
      "Ñĩ": 3064,
      "etch": 3065,
      "ĠHowever": 3066,
      "Ġparticular": 3067,
      "img": 3068,
      "Ġearly": 3069,
      "En": 3070,
      "abor": 3071,
      "Ġtemplate": 3072,
      "ĠError": 3073,
      "Ġhy": 3074,
      "Ġalong": 3075,
      "Ġable": 3076,
      "fi": 3077,
      "Ġclose": 3078,
      "---": 3079,
      "Ġasync": 3080,
      "Ġinvest": 3081,
      "Ġbelie": 3082,
      "Ġtree": 3083,
      "Ġlimit": 3084,
      "No": 3085,
      "toBe": 3086,
      "di": 3087,
      "oun": 3088,
      "Ġequ": 3089,
      "Ġarch": 3090,
      "Ġ$.": 3091,
      "ĠCopyright": 3092,
      "Ġfamily": 3093,
      "script": 3094,
      "np": 3095,
      "Ġword": 3096,
      "Ġauth": 3097,
      "address": 3098,
      "Ġlearning": 3099,
      "used": 3100,
      "ÙĦ": 3101,
      "Ġuntil": 3102,
      "PL": 3103,
      "Ġmov": 3104,
      "Ġeducation": 3105,
      "ilar": 3106,
      "Ġque": 3107,
      "iff": 3108,
      "ottom": 3109,
      "Ġ(\"": 3110,
      "Ġprovided": 3111,
      "OIN": 3112,
      "private": 3113,
      "Ġeconom": 3114,
      "lin": 3115,
      "Buffer": 3116,
      "Ġsettings": 3117,
      "vers": 3118,
      "apply": 3119,
      "Ġrespon": 3120,
      "Ġpay": 3121,
      "aper": 3122,
      "ecess": 3123,
      "Style": 3124,
      "Ġwhether": 3125,
      "template": 3126,
      "Ġopt": 3127,
      "Ġeval": 3128,
      "imum": 3129,
      "rypt": 3130,
      "header": 3131,
      "Ġcomponent": 3132,
      "ĠSUM": 3133,
      "Ġelements": 3134,
      "agment": 3135,
      "async": 3136,
      "Ġthings": 3137,
      "Ġturn": 3138,
      "stream": 3139,
      "Client": 3140,
      "abase": 3141,
      "Ġqual": 3142,
      "frame": 3143,
      "types": 3144,
      "conf": 3145,
      "Ġhandle": 3146,
      "Ġair": 3147,
      "undefined": 3148,
      "VER": 3149,
      "achine": 3150,
      "Ġcharacter": 3151,
      "raft": 3152,
      "Ġrepresent": 3153,
      "New": 3154,
      "CON": 3155,
      "Ġproblem": 3156,
      "ĠCan": 3157,
      "ze": 3158,
      "amed": 3159,
      "Ġobjects": 3160,
      "sets": 3161,
      "gy": 3162,
      "Ġnear": 3163,
      "Ġspecial": 3164,
      "exit": 3165,
      "cell": 3166,
      "ides": 3167,
      "public": 3168,
      "sort": 3169,
      "Ġfix": 3170,
      "ae": 3171,
      "assed": 3172,
      "container": 3173,
      "Ġcommit": 3174,
      "Ġdb": 3175,
      "ponents": 3176,
      "PE": 3177,
      "children": 3178,
      "Ġur": 3179,
      "Ġgovernment": 3180,
      "ĠFr": 3181,
      "late": 3182,
      "ired": 3183,
      "Ġcomplete": 3184,
      "Tag": 3185,
      "Ð¼": 3186,
      "ĠCREATE": 3187,
      "('#": 3188,
      "Ġproperties": 3189,
      "duction": 3190,
      "TP": 3191,
      "ĠPublic": 3192,
      "Obj": 3193,
      "ounds": 3194,
      "CC": 3195,
      "Ġscript": 3196,
      "ention": 3197,
      "Ġinfl": 3198,
      "lick": 3199,
      "Change": 3200,
      "Ġitems": 3201,
      "posed": 3202,
      "Ġpy": 3203,
      "Ġbus": 3204,
      "Ġprevious": 3205,
      "session": 3206,
      "ilities": 3207,
      "ĠReturns": 3208,
      "ĠIS": 3209,
      "Ġneeds": 3210,
      "*-": 3211,
      "Ġfields": 3212,
      "actory": 3213,
      "mail": 3214,
      "Ġflow": 3215,
      "Ġexit": 3216,
      "Ġsay": 3217,
      "Ind": 3218,
      "Ġstre": 3219,
      "Ġseveral": 3220,
      ">;": 3221,
      "Ġfac": 3222,
      "gn": 3223,
      "jpg": 3224,
      "ivity": 3225,
      "Ġsys": 3226,
      "Ġblood": 3227,
      "etic": 3228,
      "Ġconditions": 3229,
      "pository": 3230,
      "cache": 3231,
      "Char": 3232,
      "El": 3233,
      "asc": 3234,
      "webpack": 3235,
      "wise": 3236,
      "Ġload": 3237,
      "ãĢĤ": 3238,
      "Ġfar": 3239,
      "ught": 3240,
      "Ġdes": 3241,
      "Ġvir": 3242,
      "Ġaffect": 3243,
      "ered": 3244,
      "aries": 3245,
      "cd": 3246,
      "ideo": 3247,
      "Ġbenef": 3248,
      "Ġconnect": 3249,
      "Ġ``": 3250,
      "Ref": 3251,
      "Ġaddress": 3252,
      "Ġfeel": 3253,
      "ĊĠĠĠĠĊĠĠĠ": 3254,
      "ĠÐ²": 3255,
      "(){": 3256,
      "win": 3257,
      "EST": 3258,
      "pc": 3259,
      "ĠJOIN": 3260,
      "umer": 3261,
      "ably": 3262,
      "loc": 3263,
      "Ġothers": 3264,
      "Row": 3265,
      "Ġstrict": 3266,
      "ä»": 3267,
      "ĠUnited": 3268,
      "Ġdirectory": 3269,
      "ĠAd": 3270,
      "leep": 3271,
      "Ġworks": 3272,
      "rix": 3273,
      "ameter": 3274,
      "What": 3275,
      "cade": 3276,
      "ĠStates": 3277,
      "Ġbehav": 3278,
      "track": 3279,
      "Ġfail": 3280,
      "Ġactive": 3281,
      "rie": 3282,
      "Ġcirc": 3283,
      "ilit": 3284,
      "avig": 3285,
      "ĠOF": 3286,
      "Ġinitial": 3287,
      "ĠDo": 3288,
      "ĠCON": 3289,
      "iles": 3290,
      "ĠBe": 3291,
      "Ġjob": 3292,
      "Ð¾Ð²": 3293,
      "ĠGeneral": 3294,
      "bert": 3295,
      "imal": 3296,
      "Ġkind": 3297,
      "png": 3298,
      "stit": 3299,
      "`.": 3300,
      "depend": 3301,
      "ended": 3302,
      "eter": 3303,
      "aged": 3304,
      "Ġunit": 3305,
      "irection": 3306,
      "ump": 3307,
      "imest": 3308,
      "URL": 3309,
      "Source": 3310,
      "Ġmen": 3311,
      "erman": 3312,
      "ORT": 3313,
      "Ġindic": 3314,
      "Ġinvol": 3315,
      "tml": 3316,
      "ĠReg": 3317,
      "layer": 3318,
      "ysis": 3319,
      "Props": 3320,
      "Ġ_.": 3321,
      "Ġbook": 3322,
      "Ġdict": 3323,
      "################################": 3324,
      "alt": 3325,
      "tree": 3326,
      "efore": 3327,
      "Ġge": 3328,
      "Ġcertain": 3329,
      "ĠDate": 3330,
      "utf": 3331,
      "Ġnormal": 3332,
      "Ġsample": 3333,
      "enter": 3334,
      "ĠÑģ": 3335,
      "Ġplant": 3336,
      "Ġcorrect": 3337,
      "çĶ": 3338,
      "Ġsite": 3339,
      "cp": 3340,
      "Ġtoken": 3341,
      "Ġsomething": 3342,
      "Ġmsg": 3343,
      "urther": 3344,
      "alled": 3345,
      "objects": 3346,
      "Offset": 3347,
      "prop": 3348,
      "Level": 3349,
      "ung": 3350,
      "actions": 3351,
      "å®": 3352,
      "gether": 3353,
      "dep": 3354,
      "Ġsignific": 3355,
      "eds": 3356,
      "span": 3357,
      "aste": 3358,
      "Ġecho": 3359,
      "Line": 3360,
      "Ġproducts": 3361,
      "Ġstop": 3362,
      "Ġwords": 3363,
      "alf": 3364,
      "bit": 3365,
      "Ġpeg": 3366,
      "sol": 3367,
      "Per": 3368,
      "Ġspecified": 3369,
      "lines": 3370,
      "dated": 3371,
      "ĠSet": 3372,
      "ÃŃ": 3373,
      "Ġimplement": 3374,
      "Ġgra": 3375,
      "Ġbegin": 3376,
      "Ġstep": 3377,
      "expected": 3378,
      "extend": 3379,
      "ãĢģ": 3380,
      "tual": 3381,
      "Ġmiss": 3382,
      "OS": 3383,
      "Ġ),": 3384,
      "Box": 3385,
      "Ġdue": 3386,
      "Address": 3387,
      "åĪ": 3388,
      "ĠĠĠĠĠĠĠĠĠĠĠĠĠĠĠĠĠĠĠĠĠĠĠĠĠĠĠĠĠĠĠĠ": 3389,
      "hy": 3390,
      "Ġweb": 3391,
      "Ġfour": 3392,
      "ĠCount": 3393,
      "ĠHT": 3394,
      "xf": 3395,
      "stop": 3396,
      "Ġreturns": 3397,
      "JavaScript": 3398,
      "Tem": 3399,
      "oice": 3400,
      "inner": 3401,
      "google": 3402,
      "ĠAt": 3403,
      "Ġdays": 3404,
      "menu": 3405,
      "Ġareas": 3406,
      "Ġlittle": 3407,
      "Ġcome": 3408,
      "Ġlevels": 3409,
      "ios": 3410,
      "Ġcells": 3411,
      "]:": 3412,
      "Ġmethods": 3413,
      "Ġprotect": 3414,
      "fs": 3415,
      "asing": 3416,
      "Ġcommunity": 3417,
      "OF": 3418,
      "mat": 3419,
      "orig": 3420,
      "Ġtreatment": 3421,
      "ĠArray": 3422,
      "Ġsimple": 3423,
      "empty": 3424,
      "sequ": 3425,
      "Ġ];": 3426,
      "Ġsym": 3427,
      "Ġproblems": 3428,
      "anged": 3429,
      "Ġsession": 3430,
      "Ġcases": 3431,
      "Ġnecess": 3432,
      "DER": 3433,
      "though": 3434,
      "Ġprote": 3435,
      "Ġisinstance": 3436,
      "istor": 3437,
      ".\",": 3438,
      "Ġrole": 3439,
      "Ġscient": 3440,
      "tip": 3441,
      "sm": 3442,
      "logger": 3443,
      "ĠGet": 3444,
      "curity": 3445,
      "grams": 3446,
      "Ø±": 3447,
      "Can": 3448,
      "req": 3449,
      "Ġamong": 3450,
      "head": 3451,
      "copy": 3452,
      "Ġweight": 3453,
      "scroll": 3454,
      "Command": 3455,
      "del": 3456,
      "Ġfuture": 3457,
      "Ġprivate": 3458,
      "urs": 3459,
      "antity": 3460,
      "edit": 3461,
      "unch": 3462,
      "Ġcannot": 3463,
      "Token": 3464,
      "Ġë": 3465,
      "Ġsuggest": 3466,
      "Instance": 3467,
      "hash": 3468,
      "Ġhead": 3469,
      "ĊĠĠĠĠĠĠĠĠĠĠĠĠĠĠĠĠĠĠĠĠĠĠĠĠĠĠĠĠĠĠĠĠĠĠĠ": 3470,
      "cale": 3471,
      "/$": 3472,
      "xb": 3473,
      "Ġseem": 3474,
      "Label": 3475,
      "());": 3476,
      ")))": 3477,
      "vision": 3478,
      "Ġwrite": 3479,
      "ãģ®": 3480,
      "CL": 3481,
      "NU": 3482,
      "anges": 3483,
      "`,": 3484,
      "Ġleast": 3485,
      "Ġtypeof": 3486,
      "Ġdig": 3487,
      "Ġimpact": 3488,
      "ĊĠĠĠĠĠĠĠĠĠĠĠĠĠĠĠĠĠĠĠĠĠ": 3489,
      "('/": 3490,
      "Image": 3491,
      "Ġsubject": 3492,
      "Manager": 3493,
      "interface": 3494,
      "Ġ'.": 3495,
      "Ġproduction": 3496,
      "Ġreason": 3497,
      "oom": 3498,
      "try": 3499,
      "deplib": 3500,
      "Ġsays": 3501,
      "resource": 3502,
      "Ġmaking": 3503,
      "Ġworking": 3504,
      "OUT": 3505,
      "yles": 3506,
      "Ġerr": 3507,
      "ĠCheck": 3508,
      "Ġnetwork": 3509,
      "Ġjson": 3510,
      "irm": 3511,
      "aken": 3512,
      "Ġonce": 3513,
      "Ġpopulation": 3514,
      "ety": 3515,
      "Ġ->": 3516,
      "ithub": 3517,
      "like": 3518,
      "Ġsit": 3519,
      "ĠIs": 3520,
      "Ġ<=": 3521,
      "prefix": 3522,
      "Ġ;": 3523,
      "Ġens": 3524,
      "ohn": 3525,
      "alleng": 3526,
      "Top": 3527,
      "Ġmat": 3528,
      "ĠNot": 3529,
      "uter": 3530,
      "rows": 3531,
      "umns": 3532,
      "ture": 3533,
      "Length": 3534,
      "iqu": 3535,
      "Ġmedia": 3536,
      "ledge": 3537,
      "EL": 3538,
      "ĠUS": 3539,
      "eral": 3540,
      "Ġwriting": 3541,
      "ĠReact": 3542,
      "Ġloc": 3543,
      "Ġclean": 3544,
      "encies": 3545,
      "entry": 3546,
      "Ġrights": 3547,
      "selected": 3548,
      "Ġlibrary": 3549,
      "Ġhttps": 3550,
      "Ġpotential": 3551,
      "Container": 3552,
      "ĊĠĠĠĠĠĠĠĠĠĠ": 3553,
      "upload": 3554,
      "Ġactual": 3555,
      "Ġadded": 3556,
      "Ġbelow": 3557,
      "Ġrecord": 3558,
      "ARR": 3559,
      "aging": 3560,
      "ico": 3561,
      "Listener": 3562,
      "ĊĠĠĠĠĠĠĠĠĠĠĠĠĠĠ": 3563,
      "DIR": 3564,
      "Ġpassed": 3565,
      "Ġnever": 3566,
      "mo": 3567,
      "ITH": 3568,
      "uation": 3569,
      "NAME": 3570,
      "Ġinterface": 3571,
      "ĠDr": 3572,
      "Ġdetails": 3573,
      "creen": 3574,
      "ART": 3575,
      "earch": 3576,
      "videos": 3577,
      "ĠGod": 3578,
      "Ġapplic": 3579,
      "rate": 3580,
      "Ġterms": 3581,
      "vas": 3582,
      "xml": 3583,
      "Ġgive": 3584,
      "Ġess": 3585,
      "imer": 3586,
      "Ġpress": 3587,
      "agn": 3588,
      "Ġcover": 3589,
      "ambda": 3590,
      "la": 3591,
      "aps": 3592,
      "Ġunique": 3593,
      "Ġsrc": 3594,
      "Ġtemper": 3595,
      "ablish": 3596,
      "ĠMay": 3597,
      "Ġframe": 3598,
      "Ġsystems": 3599,
      "ĠChrist": 3600,
      "auto": 3601,
      "Ġ((": 3602,
      "je": 3603,
      "[]": 3604,
      "iance": 3605,
      "Ġbar": 3606,
      "handle": 3607,
      "ordin": 3608,
      "MA": 3609,
      "Ġtoday": 3610,
      "cr": 3611,
      "uded": 3612,
      "Ð´": 3613,
      "aves": 3614,
      "Ùħ": 3615,
      "iver": 3616,
      "ensions": 3617,
      "ye": 3618,
      "fg": 3619,
      "shot": 3620,
      "urch": 3621,
      "ĊĊĉĉĉ": 3622,
      "Ġcalc": 3623,
      "Ġdelete": 3624,
      "Ġattr": 3625,
      "register": 3626,
      "tern": 3627,
      "=`": 3628,
      "rest": 3629,
      "Ġfn": 3630,
      "/>)": 3631,
      "istic": 3632,
      "ison": 3633,
      "jQuery": 3634,
      "Ġparts": 3635,
      "Ġsent": 3636,
      "Ġargument": 3637,
      "Ġdevice": 3638,
      "inks": 3639,
      "Action": 3640,
      "Read": 3641,
      "missions": 3642,
      "ged": 3643,
      "Ġneeded": 3644,
      "ving": 3645,
      "ĠNational": 3646,
      "mary": 3647,
      "Ġteam": 3648,
      "ACK": 3649,
      "ished": 3650,
      "Ġresources": 3651,
      "Ġwar": 3652,
      "ising": 3653,
      "edia": 3654,
      "itude": 3655,
      "ĠDis": 3656,
      "bot": 3657,
      "random": 3658,
      "Ġheart": 3659,
      "Ġmembers": 3660,
      "Ġlikely": 3661,
      "ĊĠĠĠĠĠĠĠĠĊĠĠĠĠĠĠĠ": 3662,
      "Timeout": 3663,
      "gre": 3664,
      "Position": 3665,
      "Ġdep": 3666,
      "ATH": 3667,
      "(/": 3668,
      "Ġremain": 3669,
      "Util": 3670,
      "Ġste": 3671,
      "Ġ'''": 3672,
      "Ġnatural": 3673,
      "Block": 3674,
      "icles": 3675,
      "Params": 3676,
      "Ġtechn": 3677,
      "Ġsignificant": 3678,
      "email": 3679,
      "ÙĪ": 3680,
      "filename": 3681,
      "bon": 3682,
      "Ġ\"\\": 3683,
      "Mode": 3684,
      "Ġempty": 3685,
      "uck": 3686,
      "resolve": 3687,
      "era": 3688,
      "ĠMan": 3689,
      "imestamp": 3690,
      "icker": 3691,
      "Act": 3692,
      "Valid": 3693,
      "ĠEurope": 3694,
      "Ġgroups": 3695,
      "Ġlive": 3696,
      "mt": 3697,
      "ĠANY": 3698,
      "Ġfund": 3699,
      "ĠType": 3700,
      "works": 3701,
      "____": 3702,
      "ds": 3703,
      "Ġscope": 3704,
      "There": 3705,
      "service": 3706,
      "Ip": 3707,
      "Ġcrit": 3708,
      "ores": 3709,
      "Ġneg": 3710,
      "Ġpublished": 3711,
      "Ġprop": 3712,
      "Ġpers": 3713,
      "Ġinstead": 3714,
      "Ġlower": 3715,
      "Ġexperience": 3716,
      "ĠĠĠĠĠĠĠĠĠĠĠ": 3717,
      "Ġyoung": 3718,
      "Ġemploy": 3719,
      "oney": 3720,
      "constructor": 3721,
      "uple": 3722,
      "Ext": 3723,
      "(*)": 3724,
      "Ġinfo": 3725,
      "ĠYork": 3726,
      "Ġvarious": 3727,
      "Ġsimilar": 3728,
      "move": 3729,
      "Det": 3730,
      "Ġbig": 3731,
      "Ġfocus": 3732,
      "Ġequal": 3733,
      "Ġ'<": 3734,
      "task": 3735,
      "ustain": 3736,
      "Ġshape": 3737,
      "ges": 3738,
      "Ġrefer": 3739,
      "known": 3740,
      "Ġdoesn": 3741,
      "Ġ'\\": 3742,
      "oly": 3743,
      "ĠArt": 3744,
      "ĠIntern": 3745,
      "Var": 3746,
      "âĢ¦": 3747,
      "Ġusually": 3748,
      "Ġextends": 3749,
      "Ġassociated": 3750,
      "iol": 3751,
      "LOAT": 3752,
      "Ġacross": 3753,
      "ìĿ": 3754,
      "password": 3755,
      "TY": 3756,
      "å¤": 3757,
      "Update": 3758,
      "yes": 3759,
      "ĠUR": 3760,
      "Window": 3761,
      "Ġhaving": 3762,
      "fill": 3763,
      "category": 3764,
      "eval": 3765,
      "Ġselected": 3766,
      "uk": 3767,
      "Ġiter": 3768,
      "na": 3769,
      "just": 3770,
      "æĸ": 3771,
      "hell": 3772,
      "Ġwhy": 3773,
      "Ġentry": 3774,
      "ĠDon": 3775,
      "One": 3776,
      "mar": 3777,
      "ables": 3778,
      "void": 3779,
      "','": 3780,
      "ĠNo": 3781,
      "Ġask": 3782,
      "comple": 3783,
      "room": 3784,
      "Ġobtain": 3785,
      "Rec": 3786,
      "Ã£": 3787,
      "Pre": 3788,
      "ĠDep": 3789,
      "Ġprob": 3790,
      "ĠBy": 3791,
      "ĠÐ½": 3792,
      "ufact": 3793,
      "stack": 3794,
      "Ċĉĉĉĉĉĉĉ": 3795,
      "ĠÐ¸": 3796,
      "Ġcatch": 3797,
      "atory": 3798,
      "ĠNe": 3799,
      "Ġrelation": 3800,
      "Ġenough": 3801,
      "Ġseries": 3802,
      "ĠGNU": 3803,
      "Ġstream": 3804,
      "ised": 3805,
      "[:": 3806,
      "strip": 3807,
      "Ġtyp": 3808,
      "Ġattribute": 3809,
      "Header": 3810,
      "mun": 3811,
      "float": 3812,
      "Ġ).": 3813,
      "Ġ''": 3814,
      "apping": 3815,
      "Ġhigher": 3816,
      "Ġdir": 3817,
      "oto": 3818,
      "Filter": 3819,
      "ney": 3820,
      "åĲ": 3821,
      "ĠWhat": 3822,
      "Ġtask": 3823,
      "You": 3824,
      "Ġignore": 3825,
      "Ġcountries": 3826,
      "apter": 3827,
      "Ġrelative": 3828,
      "atal": 3829,
      "ĠID": 3830,
      "Ġdeterm": 3831,
      "Frame": 3832,
      "Ġpolit": 3833,
      "Ġregister": 3834,
      "API": 3835,
      ".)": 3836,
      "Ġparameters": 3837,
      "Ġstatic": 3838,
      "hr": 3839,
      "ĠAVG": 3840,
      "fail": 3841,
      "Names": 3842,
      "Ġsepar": 3843,
      "td": 3844,
      "Ġmot": 3845,
      "Ġmakes": 3846,
      "cret": 3847,
      "Ġctx": 3848,
      "Ġdam": 3849,
      "admin": 3850,
      "Ð°Ð½": 3851,
      "Resource": 3852,
      "WE": 3853,
      "Ġapplication": 3854,
      "allow": 3855,
      "Ġpast": 3856,
      "Ġheader": 3857,
      "Over": 3858,
      "Ġlines": 3859,
      "How": 3860,
      "Pr": 3861,
      "forEach": 3862,
      "ĊĠĠĠĠĠĠĠĠĠĠĠĠĠĠĠĠĠĠĠĠ": 3863,
      "Ġeffective": 3864,
      "Ġlate": 3865,
      "\"))": 3866,
      "Fe": 3867,
      "fin": 3868,
      "ĠCal": 3869,
      "Ġbutton": 3870,
      "IB": 3871,
      "Ġtogether": 3872,
      "Option": 3873,
      "xe": 3874,
      "Desc": 3875,
      "Ġcontainer": 3876,
      "uster": 3877,
      "Status": 3878,
      "ession": 3879,
      "Ġdraw": 3880,
      "Ġstrong": 3881,
      "attle": 3882,
      "ĠState": 3883,
      "¿½": 3884,
      "Ġ'%": 3885,
      "Ġtechnology": 3886,
      "ĠFLOAT": 3887,
      "Ġcontains": 3888,
      "Ġkeys": 3889,
      "eger": 3890,
      "Track": 3891,
      "PRO": 3892,
      "indexOf": 3893,
      "Ġpri": 3894,
      "Ġparser": 3895,
      "Ġtrad": 3896,
      "author": 3897,
      "ÙĨ": 3898,
      "Ġrelated": 3899,
      "uit": 3900,
      "UE": 3901,
      "'},": 3902,
      "=[": 3903,
      "ournal": 3904,
      "Ġclo": 3905,
      "Mon": 3906,
      "ban": 3907,
      "Ġdifficult": 3908,
      "Ġrate": 3909,
      "iler": 3910,
      "Ġdecl": 3911,
      "ensive": 3912,
      "lev": 3913,
      "Ġaway": 3914,
      "cing": 3915,
      "xd": 3916,
      "Ġusers": 3917,
      "trigger": 3918,
      "utions": 3919,
      "ĠWITH": 3920,
      "Menu": 3921,
      "hide": 3922,
      "Ġweek": 3923,
      "lt": 3924,
      "IV": 3925,
      "xc": 3926,
      "Link": 3927,
      "Ġpolicy": 3928,
      "hip": 3929,
      "aring": 3930,
      "github": 3931,
      "cs": 3932,
      "Ġdeath": 3933,
      "events": 3934,
      "ptoms": 3935,
      "ĠWith": 3936,
      "Ġcoll": 3937,
      "define": 3938,
      "ĠMar": 3939,
      "system": 3940,
      "iment": 3941,
      "rad": 3942,
      "Ġ{\"": 3943,
      "Target": 3944,
      "ĠSome": 3945,
      "oose": 3946,
      "Ġaccept": 3947,
      "ĠPer": 3948,
      "det": 3949,
      "Ġavoid": 3950,
      "PORT": 3951,
      "à¦": 3952,
      "oman": 3953,
      "see": 3954,
      "device": 3955,
      "ĠAss": 3956,
      "App": 3957,
      "thern": 3958,
      "iers": 3959,
      "DATE": 3960,
      "TER": 3961,
      "CE": 3962,
      "Ġpoints": 3963,
      "scale": 3964,
      "Ġkwargs": 3965,
      "Ġlogger": 3966,
      "Ġsave": 3967,
      "ĠAfr": 3968,
      "Ġestablish": 3969,
      "Ġindu": 3970,
      "selves": 3971,
      "pecially": 3972,
      "Ġfire": 3973,
      "Ġtests": 3974,
      "Ġapproach": 3975,
      "stry": 3976,
      "cap": 3977,
      "ley": 3978,
      "hib": 3979,
      "mediate": 3980,
      "ĠAmerica": 3981,
      "pha": 3982,
      "Fl": 3983,
      "Ġgoing": 3984,
      "Ġcolumn": 3985,
      "rib": 3986,
      "ĊĊĊĠĠĠ": 3987,
      "Back": 3988,
      "Ġbuilding": 3989,
      "aff": 3990,
      "Ġreq": 3991,
      "pid": 3992,
      "Ġmultiple": 3993,
      "Part": 3994,
      "tab": 3995,
      "Ġexpress": 3996,
      "insert": 3997,
      "unit": 3998,
      "Ġcentury": 3999,
      "Ġ\"\"": 4000,
      "ynam": 4001,
      "pare": 4002,
      "Ġitself": 4003,
      "Ġswitch": 4004,
      "Ġreally": 4005,
      "uest": 4006,
      "Exception": 4007,
      "oy": 4008,
      "verage": 4009,
      "Ġhandler": 4010,
      "route": 4011,
      "asks": 4012,
      "$.": 4013,
      "Ġimprove": 4014,
      "uary": 4015,
      "Ġill": 4016,
      "Â°": 4017,
      "Match": 4018,
      "clear": 4019,
      "Ġbrain": 4020,
      "Ġthought": 4021,
      "ĠOne": 4022,
      "volume": 4023,
      "anel": 4024,
      "Ġdiscover": 4025,
      "AV": 4026,
      "inition": 4027,
      "Ġcompany": 4028,
      "Ġquestion": 4029,
      "images": 4030,
      "Ġactivity": 4031,
      "help": 4032,
      "><": 4033,
      "_.": 4034,
      "ARRANT": 4035,
      "control": 4036,
      "....": 4037,
      "Ġcancer": 4038,
      "Ġconnection": 4039,
      "ĠEn": 4040,
      "Ġther": 4041,
      "Ġchem": 4042,
      "ĠWARRANT": 4043,
      "Ġmillion": 4044,
      "Ġgame": 4045,
      "TS": 4046,
      "Ġsend": 4047,
      "ĠPr": 4048,
      "ster": 4049,
      "ĠString": 4050,
      "wards": 4051,
      "meta": 4052,
      "ĠDef": 4053,
      "Ġlogging": 4054,
      "CA": 4055,
      "ouble": 4056,
      "ODE": 4057,
      "came": 4058,
      "Ġremov": 4059,
      "Ġtool": 4060,
      "Ġdefined": 4061,
      "Ġgeneral": 4062,
      "Ġapply": 4063,
      "ĊĠĠĠĠĠĠĠĠĠĠĠĠĠĠĠĠĠĠĠĠĠĠĠĠĠ": 4064,
      "Ġpatients": 4065,
      "Ġtmp": 4066,
      "Ġfil": 4067,
      "cast": 4068,
      "grid": 4069,
      "ÐµÑĢ": 4070,
      "Ð¿": 4071,
      "Ġinstall": 4072,
      "custom": 4073,
      "ressed": 4074,
      "********************************": 4075,
      "xa": 4076,
      "Ġobserv": 4077,
      "quires": 4078,
      "ĠAm": 4079,
      "ha": 4080,
      "Spec": 4081,
      "Ke": 4082,
      "}\"": 4083,
      "Ġforce": 4084,
      "usion": 4085,
      "Ġrandom": 4086,
      "istry": 4087,
      "Ġagre": 4088,
      "aced": 4089,
      "PR": 4090,
      "Widget": 4091,
      "Ġactually": 4092,
      "ODO": 4093,
      "ecol": 4094,
      "Click": 4095,
      "Ġemail": 4096,
      "ï¿½": 4097,
      "component": 4098,
      "Ġhowever": 4099,
      "ctx": 4100,
      "vidence": 4101,
      "non": 4102,
      "napshot": 4103,
      "Ñħ": 4104,
      "compile": 4105,
      "Project": 4106,
      "ret": 4107,
      "Ġsection": 4108,
      "ĠValue": 4109,
      "TH": 4110,
      "Ġetc": 4111,
      "Ġfrequ": 4112,
      "ram": 4113,
      "Ġaccording": 4114,
      "================================": 4115,
      "Ġcut": 4116,
      "ĠBrit": 4117,
      "Ġcache": 4118,
      "results": 4119,
      "ba": 4120,
      "Ġhold": 4121,
      "Ġir": 4122,
      "Mod": 4123,
      "Ġoffer": 4124,
      "Oper": 4125,
      "gment": 4126,
      "Ġapi": 4127,
      "Ġfurther": 4128,
      "Control": 4129,
      "iation": 4130,
      "ĠGe": 4131,
      "Ġbuilt": 4132,
      "Ġstates": 4133,
      "ĠÃ": 4134,
      "Ġstory": 4135,
      "Ġrather": 4136,
      "izing": 4137,
      "ĠEar": 4138,
      "ights": 4139,
      "Ġyet": 4140,
      "sys": 4141,
      "Ġ'#": 4142,
      "Ġrule": 4143,
      "Ġarticle": 4144,
      "OO": 4145,
      "Ġev": 4146,
      "DF": 4147,
      "Ġ/>": 4148,
      "Format": 4149,
      "Ph": 4150,
      "Ġeffects": 4151,
      "à¹": 4152,
      "Ġespecially": 4153,
      "ĠWorld": 4154,
      "ado": 4155,
      "Ġstudent": 4156,
      "bt": 4157,
      "Ġsafe": 4158,
      "yl": 4159,
      "Ġparticip": 4160,
      "thecol": 4161,
      "bertreport": 4162,
      "thecolbertreport": 4163,
      "commit": 4164,
      "Ġways": 4165,
      "Ġlim": 4166,
      "ĠAb": 4167,
      "Acc": 4168,
      "ĠCar": 4169,
      "Ġseen": 4170,
      "Ġengine": 4171,
      "ĠEvent": 4172,
      "ITY": 4173,
      "ele": 4174,
      "Ġlead": 4175,
      "libs": 4176,
      "chie": 4177,
      "Ġgit": 4178,
      "Ġsuff": 4179,
      "Init": 4180,
      "total": 4181,
      "anced": 4182,
      "amount": 4183,
      "arge": 4184,
      "Ġcondition": 4185,
      "ĠAPI": 4186,
      "ases": 4187,
      "Ġcollect": 4188,
      "metadata": 4189,
      "column": 4190,
      "ĠÄ": 4191,
      "ĊĊĠĠĠĠĠĠĠĠĠĠĠĠĠĠĠĠĠĠĠ": 4192,
      "Ġclimate": 4193,
      "ĠSup": 4194,
      "tocol": 4195,
      "Min": 4196,
      "Rem": 4197,
      "include": 4198,
      "Ġchalleng": 4199,
      "åĬ": 4200,
      "ival": 4201,
      "Ġquality": 4202,
      "lling": 4203,
      "Ġtraining": 4204,
      "Ġphysical": 4205,
      "plicit": 4206,
      "Ġfri": 4207,
      "Ġhouse": 4208,
      "mult": 4209,
      "au": 4210,
      "Ġvideo": 4211,
      "Open": 4212,
      "Ġreduce": 4213,
      "ev": 4214,
      "ĠMA": 4215,
      "Ġmind": 4216,
      "cean": 4217,
      "Ġbas": 4218,
      "à¥": 4219,
      "Ġtw": 4220,
      "Ġfish": 4221,
      "username": 4222,
      "Store": 4223,
      "make": 4224,
      "Ġng": 4225,
      "OW": 4226,
      "iant": 4227,
      "Ġthough": 4228,
      "Ġnecessary": 4229,
      "Ġmer": 4230,
      "mask": 4231,
      "common": 4232,
      "Left": 4233,
      "Schema": 4234,
      "Ġansw": 4235,
      "Ġwhole": 4236,
      ")]": 4237,
      "ĠEnglish": 4238,
      "Ġarr": 4239,
      "udget": 4240,
      "cls": 4241,
      "Ġ{},": 4242,
      "buffer": 4243,
      "Ġplants": 4244,
      "DB": 4245,
      "Ġscale": 4246,
      "ttp": 4247,
      "Ġconfiguration": 4248,
      "widget": 4249,
      "fully": 4250,
      "Ġrecogn": 4251,
      "(\"#": 4252,
      "ĠList": 4253,
      "roid": 4254,
      "Ġknowledge": 4255,
      "ÙĬ": 4256,
      "amin": 4257,
      "Ġ-*-": 4258,
      "Server": 4259,
      "Ġbit": 4260,
      "Ġopts": 4261,
      "ĠAct": 4262,
      "ana": 4263,
      "sync": 4264,
      "Ġstrateg": 4265,
      "ided": 4266,
      "Ġvisit": 4267,
      "Ġoperation": 4268,
      "ĠURL": 4269,
      "Ġmo": 4270,
      "When": 4271,
      "Return": 4272,
      "Ġreceived": 4273,
      "ĠDEC": 4274,
      "Ġfig": 4275,
      "Ġder": 4276,
      "ternal": 4277,
      "Ġexisting": 4278,
      "ĠÐ¾": 4279,
      "Dom": 4280,
      "ä½": 4281,
      "izes": 4282,
      "sample": 4283,
      "Ġissues": 4284,
      "Down": 4285,
      "bor": 4286,
      "Ġconstructor": 4287,
      "sec": 4288,
      "Ipv": 4289,
      "Method": 4290,
      "Ab": 4291,
      "Ċĉĉĉĉĉĉĉĉ": 4292,
      "ffort": 4293,
      "lers": 4294,
      "Exp": 4295,
      "Ġfunctions": 4296,
      "slice": 4297,
      "ĊĉĊ": 4298,
      "ĠJSON": 4299,
      "oke": 4300,
      "Ġinc": 4301,
      "Ġloss": 4302,
      "Ġlicense": 4303,
      "Arg": 4304,
      "IMAL": 4305,
      "ĠData": 4306,
      "bose": 4307,
      "Ġlot": 4308,
      "venue": 4309,
      "Ġip": 4310,
      "Ġbecame": 4311,
      "Run": 4312,
      "Ġcategory": 4313,
      "Ġadmin": 4314,
      "sing": 4315,
      "Ġreturned": 4316,
      "ĠBl": 4317,
      "IONS": 4318,
      "Ġsymptoms": 4319,
      "Ġvia": 4320,
      "Net": 4321,
      "Ġhash": 4322,
      "\":\"": 4323,
      "Ġintro": 4324,
      "txt": 4325,
      "Ġerrors": 4326,
      "FILE": 4327,
      "media": 4328,
      "istance": 4329,
      "Ġaddition": 4330,
      "Ġuseful": 4331,
      "erved": 4332,
      "Ġstat": 4333,
      "ĠRem": 4334,
      "ĠUse": 4335,
      "Ġservices": 4336,
      "#!": 4337,
      "Ġvolume": 4338,
      "dim": 4339,
      "normal": 4340,
      "ĠGerman": 4341,
      "ĠHealth": 4342,
      "Ġdim": 4343,
      "adding": 4344,
      "Ġstandard": 4345,
      "Ġbuffer": 4346,
      "break": 4347,
      "country": 4348,
      "imple": 4349,
      "headers": 4350,
      "Ġensure": 4351,
      "Ġcour": 4352,
      "Ġterm": 4353,
      "Ġpersonal": 4354,
      "Ġproper": 4355,
      "boolean": 4356,
      "unt": 4357,
      "(()": 4358,
      "IND": 4359,
      "ĠCreate": 4360,
      "scribe": 4361,
      "ometimes": 4362,
      "pk": 4363,
      "parser": 4364,
      "Ġprovides": 4365,
      "Ġstudies": 4366,
      "'re": 4367,
      "Ġred": 4368,
      "Ġfall": 4369,
      "Search": 4370,
      "apache": 4371,
      "oment": 4372,
      "IES": 4373,
      "ÛĮ": 4374,
      "plot": 4375,
      "rac": 4376,
      "Version": 4377,
      "ĠNOT": 4378,
      "Ġadditional": 4379,
      "force": 4380,
      "ĠCo": 4381,
      "Ġnut": 4382,
      "Selector": 4383,
      "íķ": 4384,
      "drop": 4385,
      "Ġautom": 4386,
      "Ġclaim": 4387,
      "font": 4388,
      "channel": 4389,
      "ued": 4390,
      "Ġindustry": 4391,
      "PATH": 4392,
      "ustral": 4393,
      "Range": 4394,
      "Vis": 4395,
      "ology": 4396,
      "account": 4397,
      "Cache": 4398,
      "Render": 4399,
      "axis": 4400,
      "ĠThat": 4401,
      "ĠclassName": 4402,
      "Column": 4403,
      "Ġhot": 4404,
      "ilters": 4405,
      "Ġchannel": 4406,
      "related": 4407,
      "}/": 4408,
      "Ġdrop": 4409,
      "ulated": 4410,
      "Ġrunning": 4411,
      "ĠDECIMAL": 4412,
      "Ġactivities": 4413,
      "ii": 4414,
      "Ġdrug": 4415,
      "mic": 4416,
      "VAL": 4417,
      "Ġuses": 4418,
      "Ġprefix": 4419,
      "inding": 4420,
      "ĠTrans": 4421,
      "Ġreference": 4422,
      "Ġground": 4423,
      "Max": 4424,
      "Ġstructure": 4425,
      "]]": 4426,
      "prec": 4427,
      "Ġsix": 4428,
      "ony": 4429,
      "Dr": 4430,
      "Ġ<<": 4431,
      "Ġfeed": 4432,
      "ried": 4433,
      "collection": 4434,
      "Ġtaken": 4435,
      "Ġcompl": 4436,
      "ipment": 4437,
      "istics": 4438,
      "ĠÐº": 4439,
      "ĠSoc": 4440,
      "properties": 4441,
      "ometry": 4442,
      "Own": 4443,
      "graph": 4444,
      "Create": 4445,
      "Controller": 4446,
      "ĠGu": 4447,
      "Ġexists": 4448,
      "bsite": 4449,
      "Ġhappen": 4450,
      "argin": 4451,
      "Ġchanged": 4452,
      "Ġcred": 4453,
      "Ġmarket": 4454,
      "icode": 4455,
      "Stream": 4456,
      "access": 4457,
      "Ġrecomm": 4458,
      "Ġhtml": 4459,
      "volution": 4460,
      "Ġsun": 4461,
      "mem": 4462,
      "Ð°ÑĤ": 4463,
      "ĠTHE": 4464,
      "ENSE": 4465,
      "Ġblack": 4466,
      "Ġcame": 4467,
      "aily": 4468,
      "Ġdjango": 4469,
      "cert": 4470,
      "Ġpoll": 4471,
      "Ġwon": 4472,
      "Ġgrowth": 4473,
      "Ġconsum": 4474,
      "></": 4475,
      "osp": 4476,
      "Events": 4477,
      "Ġevidence": 4478,
      "ANG": 4479,
      "global": 4480,
      "Ġpassword": 4481,
      "prev": 4482,
      "'}),": 4483,
      "Bar": 4484,
      "uel": 4485,
      "Provider": 4486,
      "DOM": 4487,
      "ĠWar": 4488,
      "###": 4489,
      "Prop": 4490,
      "Ġconsidered": 4491,
      "toString": 4492,
      "Ġassign": 4493,
      "ming": 4494,
      "Ġliter": 4495,
      "points": 4496,
      "based": 4497,
      "ounc": 4498,
      "ycle": 4499,
      "Ġsense": 4500,
      "Ġentire": 4501,
      "Ġprops": 4502,
      "toEqual": 4503,
      "obile": 4504,
      "Ġprogress": 4505,
      "portun": 4506,
      "ĠUp": 4507,
      "Ġyield": 4508,
      "Settings": 4509,
      "Ġupon": 4510,
      "istration": 4511,
      "Ġann": 4512,
      "Ġgreen": 4513,
      "Ġjo": 4514,
      "Ġ'-": 4515,
      "ICENSE": 4516,
      "Ġcomplex": 4517,
      "Ġwait": 4518,
      "ĠFound": 4519,
      "Ġparam": 4520,
      "aur": 4521,
      "enn": 4522,
      "step": 4523,
      "icial": 4524,
      "BU": 4525,
      "gra": 4526,
      "Ġdiet": 4527,
      "timeout": 4528,
      "gl": 4529,
      "Tree": 4530,
      "Ġpaper": 4531,
      "ĠÐ´": 4532,
      "ĠĠĠĠĠĠĠĠĠ": 4533,
      "Ġfloat": 4534,
      "ĠSub": 4535,
      "ament": 4536,
      "Hel": 4537,
      "Ġwhite": 4538,
      "AY": 4539,
      "Pack": 4540,
      "lation": 4541,
      "Ġbehavior": 4542,
      "ĠFe": 4543,
      "Ġinflu": 4544,
      "Ġmeet": 4545,
      ")),": 4546,
      "ĠName": 4547,
      "abit": 4548,
      "ĠMed": 4549,
      "Ġmonths": 4550,
      "ĠÂ": 4551,
      "Cal": 4552,
      "Ġcontact": 4553,
      "Ġexception": 4554,
      "fficient": 4555,
      "quence": 4556,
      "gg": 4557,
      "ARY": 4558,
      "Ġprimary": 4559,
      "Ġachie": 4560,
      "Ġ\"],": 4561,
      "vey": 4562,
      "Ġdeep": 4563,
      "agg": 4564,
      "Ġattack": 4565,
      "Ġscience": 4566,
      "Ġidea": 4567,
      "Ġmeasure": 4568,
      "iforn": 4569,
      "opts": 4570,
      "Ã¼": 4571,
      "Ġhours": 4572,
      "Ġreplace": 4573,
      "Layout": 4574,
      "mouse": 4575,
      "~~": 4576,
      "Ġ):": 4577,
      "Ġquestions": 4578,
      "rown": 4579,
      "hood": 4580,
      "Ġeffort": 4581,
      "Ġ---": 4582,
      "ÐµÑĤ": 4583,
      "Ġimm": 4584,
      "atives": 4585,
      "'\\": 4586,
      "Ġtransform": 4587,
      "flag": 4588,
      "Ġbranch": 4589,
      "ggle": 4590,
      "avor": 4591,
      "Ġissue": 4592,
      "fort": 4593,
      "Ġmedical": 4594,
      "Ġmaterials": 4595,
      "ctionary": 4596,
      "Ġ\"/": 4597,
      "Ġfilename": 4598,
      "uate": 4599,
      "Ġquick": 4600,
      "JSON": 4601,
      "elem": 4602,
      "sa": 4603,
      "Ġexecut": 4604,
      "Ġbusiness": 4605,
      "Promise": 4606,
      "]*": 4607,
      "real": 4608,
      "Ġhalf": 4609,
      "Ġaxis": 4610,
      "section": 4611,
      "desc": 4612,
      "Ġbasic": 4613,
      "Ġprice": 4614,
      "ĠMon": 4615,
      "actor": 4616,
      "AGE": 4617,
      "Ġhor": 4618,
      "views": 4619,
      "(`": 4620,
      "erve": 4621,
      "SU": 4622,
      "zz": 4623,
      "Ġsens": 4624,
      "ĠUser": 4625,
      "_(": 4626,
      "holder": 4627,
      "ately": 4628,
      "comes": 4629,
      "oph": 4630,
      "ĠWITHOUT": 4631,
      "ifornia": 4632,
      "hold": 4633,
      "Ġraw": 4634,
      "Web": 4635,
      "ifest": 4636,
      "ĠStud": 4637,
      "áĥ": 4638,
      "Ġnational": 4639,
      "tract": 4640,
      "Python": 4641,
      "Ġmix": 4642,
      "Ġattem": 4643,
      "Ġclick": 4644,
      "Ġsurface": 4645,
      "ulations": 4646,
      "Ġselector": 4647,
      "reme": 4648,
      "Ġ'',": 4649,
      "Øª": 4650,
      "idx": 4651,
      "Ġrad": 4652,
      "pi": 4653,
      "Ġauto": 4654,
      "python": 4655,
      "Ġprograms": 4656,
      "Dir": 4657,
      "ĠEd": 4658,
      "mbols": 4659,
      "AAAA": 4660,
      "ilitary": 4661,
      "SD": 4662,
      "Ð¾Ð»": 4663,
      "Parent": 4664,
      "Ġimplied": 4665,
      ".*": 4666,
      "console": 4667,
      "ĠSoftware": 4668,
      "urrenc": 4669,
      "bu": 4670,
      "Ð¾ÑĢ": 4671,
      "usr": 4672,
      "Ġmicro": 4673,
      "Ġcomb": 4674,
      "artment": 4675,
      "ĠFl": 4676,
      "Ġwide": 4677,
      "Ġgraph": 4678,
      "licenses": 4679,
      "Ġmanagement": 4680,
      "panies": 4681,
      "CR": 4682,
      "Rout": 4683,
      "mk": 4684,
      "where": 4685,
      "----------------------------------------------------------------": 4686,
      "ivil": 4687,
      "TO": 4688,
      "Ġfive": 4689,
      "TE": 4690,
      "addClass": 4691,
      "Ġdeveloped": 4692,
      "]))": 4693,
      "}}": 4694,
      "IF": 4695,
      "Ġtrigger": 4696,
      "login": 4697,
      "loor": 4698,
      "Ã¤": 4699,
      "install": 4700,
      "queue": 4701,
      "writ": 4702,
      "'].": 4703,
      "ÑĨ": 4704,
      "Dec": 4705,
      "#!/": 4706,
      "Ġforms": 4707,
      "Ġdirectly": 4708,
      "Ġonline": 4709,
      "wd": 4710,
      "Scroll": 4711,
      "Ġskills": 4712,
      "chedule": 4713,
      "ĠNote": 4714,
      "Ġmass": 4715,
      "Ġwritten": 4716,
      "Template": 4717,
      "Ġthemselves": 4718,
      "eta": 4719,
      "weight": 4720,
      "Ġheaders": 4721,
      "called": 4722,
      "ino": 4723,
      "respon": 4724,
      "plugin": 4725,
      "{\"": 4726,
      "NA": 4727,
      "Ġresol": 4728,
      "bb": 4729,
      "reset": 4730,
      "icate": 4731,
      "Ġsaf": 4732,
      "ëĭ": 4733,
      "Ġexports": 4734,
      "Ġlayer": 4735,
      "ying": 4736,
      "wrapper": 4737,
      "Dep": 4738,
      "Ġrelig": 4739,
      "Ġinside": 4740,
      "Ġgrad": 4741,
      "Ġhistor": 4742,
      "Ġsecurity": 4743,
      "Ġanalysis": 4744,
      "endar": 4745,
      "uint": 4746,
      "php": 4747,
      "åľ": 4748,
      "ĠKey": 4749,
      "Ġdesc": 4750,
      "ULT": 4751,
      "pipe": 4752,
      "Ġpractice": 4753,
      "Ġcy": 4754,
      "Ġintern": 4755,
      "Output": 4756,
      "ĠPR": 4757,
      "Ġproces": 4758,
      "Ġoil": 4759,
      "Ġbool": 4760,
      "Ġfarm": 4761,
      "Ġbox": 4762,
      "Call": 4763,
      "Ġreading": 4764,
      "Document": 4765,
      "ĠPre": 4766,
      "Ġdefine": 4767,
      "center": 4768,
      "Sl": 4769,
      "ĠLo": 4770,
      "Ġmember": 4771,
      "ĠWest": 4772,
      "Ġep": 4773,
      "Ġappear": 4774,
      "Collection": 4775,
      "Ġnor": 4776,
      "Ġnature": 4777,
      "IE": 4778,
      "Ġlonger": 4779,
      "Ġ'./": 4780,
      "oss": 4781,
      "rics": 4782,
      "Ġnumbers": 4783,
      "nov": 4784,
      "ugins": 4785,
      "/>": 4786,
      "irth": 4787,
      "Ġprev": 4788,
      "Ġshare": 4789,
      "MS": 4790,
      "eners": 4791,
      "month": 4792,
      "Ġpositive": 4793,
      "Art": 4794,
      "rm": 4795,
      "oder": 4796,
      "apy": 4797,
      "Ġcomes": 4798,
      "ĠNorth": 4799,
      "Ġability": 4800,
      "Ġcmd": 4801,
      "ican": 4802,
      "variable": 4803,
      "Ġprior": 4804,
      "Title": 4805,
      "ros": 4806,
      "gor": 4807,
      "Ġfamil": 4808,
      "Edit": 4809,
      "job": 4810,
      "ATION": 4811,
      "ste": 4812,
      "idents": 4813,
      "atio": 4814,
      "Scope": 4815,
      ":'": 4816,
      "Ġnote": 4817,
      "imation": 4818,
      "chools": 4819,
      "$(": 4820,
      "Ġrepository": 4821,
      "cb": 4822,
      "ĠWeb": 4823,
      "roke": 4824,
      "Ĥ¬": 4825,
      "outer": 4826,
      "Ġmor": 4827,
      "Ġcurrently": 4828,
      "Ġexplo": 4829,
      "Current": 4830,
      "rt": 4831,
      "Ġlock": 4832,
      "Em": 4833,
      "Ġliving": 4834,
      "handler": 4835,
      "Ġbi": 4836,
      "leaf": 4837,
      "æĪ": 4838,
      "ĠQu": 4839,
      "Ġskin": 4840,
      "Ġresearchers": 4841,
      "Ġmenu": 4842,
      "GET": 4843,
      "Ġopportun": 4844,
      "Ġdatabase": 4845,
      "Ġparents": 4846,
      "pute": 4847,
      "Storage": 4848,
      "ROR": 4849,
      "Ġinfe": 4850,
      "uuid": 4851,
      "execute": 4852,
      "Ġalmost": 4853,
      "raint": 4854,
      "Ġmodern": 4855,
      "Ġbound": 4856,
      "Ġexerc": 4857,
      "Gener": 4858,
      "'));": 4859,
      "spe": 4860,
      "ĠSm": 4861,
      "uly": 4862,
      "lim": 4863,
      "gu": 4864,
      "Ġsleep": 4865,
      "CK": 4866,
      "Ġbal": 4867,
      "Ġmaintain": 4868,
      "Ġutil": 4869,
      "abet": 4870,
      "('./": 4871,
      "getElement": 4872,
      "osis": 4873,
      "Ã§": 4874,
      "Items": 4875,
      "encode": 4876,
      "Ġcenter": 4877,
      "Ġexperi": 4878,
      "controller": 4879,
      "temp": 4880,
      "Ġtemperature": 4881,
      "Ġregular": 4882,
      "ĠDE": 4883,
      "uge": 4884,
      "deplibs": 4885,
      "Wrapper": 4886,
      "application": 4887,
      "long": 4888,
      "UI": 4889,
      "Ġnodes": 4890,
      "draw": 4891,
      "Ġgenerate": 4892,
      "Ġincreased": 4893,
      "Ġresolve": 4894,
      "Ġanimals": 4895,
      "Ġscreen": 4896,
      "Ġharm": 4897,
      "ĠResearch": 4898,
      "Co": 4899,
      "ĠSouth": 4900,
      "mm": 4901,
      "ĊĊĠĠĠĠĠĠĠĠĠ": 4902,
      "Ġpressure": 4903,
      "ĠMin": 4904,
      "assertTrue": 4905,
      "Ġshown": 4906,
      "dl": 4907,
      "ãĥ¼": 4908,
      "Ġpattern": 4909,
      "aling": 4910,
      "adius": 4911,
      "iece": 4912,
      "ĠEX": 4913,
      "unte": 4914,
      "connection": 4915,
      "Ġdiscuss": 4916,
      "Ġthing": 4917,
      "des": 4918,
      "ĠInc": 4919,
      "nodes": 4920,
      "aved": 4921,
      "Ġflag": 4922,
      "ĊĠĠĠĠĠĠĠĠĠĠĠĠĠĠĠĠĠĠĠĠĠĠĠĠĠĠĠĠ": 4923,
      "Ġcomment": 4924,
      "ĠAcc": 4925,
      "Ġincluded": 4926,
      "Factory": 4927,
      ">,": 4928,
      "Ġconcept": 4929,
      "{}": 4930,
      "Ġdetect": 4931,
      "Ġrespect": 4932,
      "Ġtell": 4933,
      "Ġbad": 4934,
      "Ġexc": 4935,
      "anger": 4936,
      "ĠÄĳ": 4937,
      "Mock": 4938,
      "Build": 4939,
      "Ġang": 4940,
      "Ġanaly": 4941,
      "Ġeconomic": 4942,
      "Ġincludes": 4943,
      "Ġfeature": 4944,
      "IST": 4945,
      "olar": 4946,
      "required": 4947,
      "Ġreject": 4948,
      "Ġever": 4949,
      "Ġadult": 4950,
      "rive": 4951,
      "Ġmusic": 4952,
      "So": 4953,
      "Ġche": 4954,
      "Ġà¤": 4955,
      "Ġhope": 4956,
      "Ġallows": 4957,
      "ĠTODO": 4958,
      "editor": 4959,
      "Sup": 4960,
      "dates": 4961,
      "Ġhook": 4962,
      "alle": 4963,
      "Ġexport": 4964,
      "Ġpolitical": 4965,
      "Ġrelease": 4966,
      "vm": 4967,
      "flags": 4968,
      "Hash": 4969,
      "area": 4970,
      "Ð±": 4971,
      "ĠShe": 4972,
      "Ġsafety": 4973,
      "II": 4974,
      "Ġoz": 4975,
      "rial": 4976,
      "adow": 4977,
      "Ġstack": 4978,
      "Ġchemical": 4979,
      "record": 4980,
      "}`": 4981,
      "Ġproduce": 4982,
      "house": 4983,
      "Ġinsert": 4984,
      "Ø¯": 4985,
      "Ġdetermine": 4986,
      "Keys": 4987,
      "ĠBo": 4988,
      "ĊĠĠĠĠĠĠĠĠĠĠĠĠĠĠĠĠĠĠĠĠĠĠĠĠĠĠĠĠĠĠĠĠĠĠĠĠĠĠĠ": 4989,
      "JS": 4990,
      "disabled": 4991,
      "Ġallowed": 4992,
      "mount": 4993,
      "Ġer": 4994,
      "ĠKEY": 4995,
      "XXXX": 4996,
      "Do": 4997,
      "Ġnamed": 4998,
      "Ġrecent": 4999,
      "ĠValueError": 5000,
      "ĠJohn": 5001,
      "(['": 5002,
      ",'": 5003,
      "ube": 5004,
      "Ġfeatures": 5005,
      "uses": 5006,
      "domain": 5007,
      "exists": 5008,
      ")).": 5009,
      "ĊĠĠĠĠĠĠĠĠĠĠĠĠĠĠĠĠĠĠĠĠĠĠ": 5010,
      "Direct": 5011,
      "ĠFoundation": 5012,
      "none": 5013,
      "Ġfailed": 5014,
      "Ġmoney": 5015,
      "pread": 5016,
      "ãģĹ": 5017,
      "flict": 5018,
      "Ġsoil": 5019,
      "PS": 5020,
      "Ġcapt": 5021,
      "Ġunderstanding": 5022,
      "Ġeasy": 5023,
      "////////////////": 5024,
      "ĠAtt": 5025,
      "Ġreach": 5026,
      "Ġfactors": 5027,
      "entity": 5028,
      "Ð·": 5029,
      "libdir": 5030,
      "wner": 5031,
      "dec": 5032,
      "ĠPart": 5033,
      "Ġdebug": 5034,
      "æķ": 5035,
      "Ð½Ñĭ": 5036,
      "Ġplatform": 5037,
      "fire": 5038,
      "KEY": 5039,
      "eters": 5040,
      "Ġ'';": 5041,
      "game": 5042,
      "Ġscroll": 5043,
      "Ð¸ÑĤ": 5044,
      "lower": 5045,
      "Ġvariables": 5046,
      "Year": 5047,
      "validate": 5048,
      "chan": 5049,
      "Ġface": 5050,
      "Ġactions": 5051,
      "Ġhealthy": 5052,
      "Ġcontribut": 5053,
      "Ġmanufact": 5054,
      "]+": 5055,
      "Ġattributes": 5056,
      "ancel": 5057,
      "emale": 5058,
      "Location": 5059,
      "eries": 5060,
      "dirname": 5061,
      "ĠRec": 5062,
      "Ġsed": 5063,
      "Ġtook": 5064,
      "illed": 5065,
      "cape": 5066,
      "Ġheat": 5067,
      "Ġpopular": 5068,
      "Ġ\"%": 5069,
      "trl": 5070,
      "Ġdescribe": 5071,
      "Ġfun": 5072,
      "Ġprofess": 5073,
      "ãģĦ": 5074,
      "Ġgas": 5075,
      "Ġoutside": 5076,
      "Ġtakes": 5077,
      "airs": 5078,
      "Ġda": 5079,
      "Ġintegr": 5080,
      "Ġâ": 5081,
      "artist": 5082,
      "ĠApache": 5083,
      "Ġnative": 5084,
      "essel": 5085,
      "Ġdatetime": 5086,
      "ij": 5087,
      "[-": 5088,
      "Ġsources": 5089,
      "arguments": 5090,
      "initial": 5091,
      "Ġstorage": 5092,
      "Ġenv": 5093,
      "pay": 5094,
      "ĠAfter": 5095,
      "rench": 5096,
      "Ġshows": 5097,
      "ained": 5098,
      "(-": 5099,
      "Ġexam": 5100,
      "Ġinternal": 5101,
      "ESC": 5102,
      "Ġ\",": 5103,
      "Ġfill": 5104,
      "ĠEarth": 5105,
      "QL": 5106,
      "atterns": 5107,
      "Ġsustain": 5108,
      "support": 5109,
      "Ġdem": 5110,
      "setup": 5111,
      "Ġcb": 5112,
      "After": 5113,
      "focus": 5114,
      "second": 5115,
      "Ġsupported": 5116,
      "ĠSp": 5117,
      "Ġshared": 5118,
      "Ġbill": 5119,
      "Ġsetting": 5120,
      "Ġri": 5121,
      "Ġimages": 5122,
      "Ġmag": 5123,
      "Dialog": 5124,
      "ding": 5125,
      "Ġdomain": 5126,
      "basic": 5127,
      "Ġprinc": 5128,
      "Ass": 5129,
      "ĠST": 5130,
      "ĠIsl": 5131,
      "zer": 5132,
      "Api": 5133,
      "Ġsal": 5134,
      "ILE": 5135,
      "uri": 5136,
      "den": 5137,
      "termin": 5138,
      "ool": 5139,
      "look": 5140,
      "ĠĠĠĠĠĠĠĠĠĠĠĠ": 5141,
      "ASE": 5142,
      "Mark": 5143,
      "Ġparameter": 5144,
      "COM": 5145,
      "Bl": 5146,
      "that": 5147,
      "Ġmatter": 5148,
      "Ġphot": 5149,
      "rome": 5150,
      "ĊĉĠĠĠĠĠĠĠĠĠĠĠĠĠĠĠ": 5151,
      "Ġgot": 5152,
      "Ġsimply": 5153,
      "IZ": 5154,
      "Ġaverage": 5155,
      "Ġpick": 5156,
      "Ġ\\`": 5157,
      "ĠRed": 5158,
      "datetime": 5159,
      "ĠÐ¿ÑĢ": 5160,
      "Ġesac": 5161,
      "gent": 5162,
      "Ġrules": 5163,
      "Ġprec": 5164,
      "ULE": 5165,
      "acters": 5166,
      "Ġdoing": 5167,
      "Ñİ": 5168,
      "Ġviol": 5169,
      "Ġthreat": 5170,
      "Ġessential": 5171,
      "Ġsou": 5172,
      "profile": 5173,
      "cover": 5174,
      "eq": 5175,
      "lint": 5176,
      "Ġcore": 5177,
      "Ġexpression": 5178,
      "ĠPe": 5179,
      "ĠVal": 5180,
      "ById": 5181,
      "icks": 5182,
      "Ġdtype": 5183,
      "ĠØ§": 5184,
      "enced": 5185,
      "Ġthroughout": 5186,
      "gis": 5187,
      "Ġincreasing": 5188,
      "Ġmetadata": 5189,
      "Ġmeaning": 5190,
      "coming": 5191,
      "Ġprovid": 5192,
      "Ð¾Ð´": 5193,
      "Auth": 5194,
      "ĠJap": 5195,
      "gricult": 5196,
      "cel": 5197,
      "urrency": 5198,
      "gorith": 5199,
      "igr": 5200,
      "assign": 5201,
      "\\$": 5202,
      "ACT": 5203,
      "ford": 5204,
      "izations": 5205,
      "Ġled": 5206,
      "Ġgreater": 5207,
      "/'": 5208,
      "Ġpi": 5209,
      "Ð¾Ð¼": 5210,
      "Ġoccur": 5211,
      "Ġbackground": 5212,
      ">'": 5213,
      ":\"": 5214,
      "Ġroute": 5215,
      "![](<": 5216,
      "Ġ'_": 5217,
      "Ġtaking": 5218,
      "Ġtalk": 5219,
      "Ġcomputer": 5220,
      "Ġremoved": 5221,
      "Ġtab": 5222,
      "ening": 5223,
      "ducation": 5224,
      "astic": 5225,
      "emit": 5226,
      "CS": 5227,
      "Ġ\"#": 5228,
      "Ġcarbon": 5229,
      "è¿": 5230,
      "éĢ": 5231,
      "ĠVersion": 5232,
      "region": 5233,
      "Ġspeed": 5234,
      "Ġrequires": 5235,
      "tags": 5236,
      "ynamic": 5237,
      "Ġbegan": 5238,
      "Ġorigin": 5239,
      "Ġsymbol": 5240,
      "reshold": 5241,
      "Ġcompanies": 5242,
      "ĠMake": 5243,
      "../../": 5244,
      "Ġdesigned": 5245,
      "Ġmemory": 5246,
      "Auto": 5247,
      "Invalid": 5248,
      "åĽ": 5249,
      "rong": 5250,
      "ellow": 5251,
      "aker": 5252,
      "è¯": 5253,
      "ĠORDER": 5254,
      "Ġbio": 5255,
      "Ġcontaining": 5256,
      "Ùĩ": 5257,
      "ama": 5258,
      "leted": 5259,
      "using": 5260,
      "ALL": 5261,
      "Ġtemp": 5262,
      "FL": 5263,
      ")\"": 5264,
      "Utils": 5265,
      "aria": 5266,
      "Ð°Ð»": 5267,
      "users": 5268,
      "Ġidentify": 5269,
      "Ġcauses": 5270,
      "chain": 5271,
      "velopment": 5272,
      "Ġmessages": 5273,
      "Ġupdated": 5274,
      "Ġstarted": 5275,
      "Sy": 5276,
      "rand": 5277,
      "vention": 5278,
      "Ġconsist": 5279,
      "ĠException": 5280,
      "ĠOther": 5281,
      "Parser": 5282,
      "otal": 5283,
      "ĠMy": 5284,
      "ested": 5285,
      "Ġcamp": 5286,
      "Ġdepart": 5287,
      "angle": 5288,
      "Ġaltern": 5289,
      "Ġselection": 5290,
      "Ra": 5291,
      "Ġtax": 5292,
      "ãĤĴ": 5293,
      "Ġperformance": 5294,
      "ancial": 5295,
      "stitute": 5296,
      "amm": 5297,
      "ril": 5298,
      "words": 5299,
      "zone": 5300,
      "ĠMe": 5301,
      "helper": 5302,
      "IO": 5303,
      "concat": 5304,
      "ĠOb": 5305,
      "Ġtesting": 5306,
      "NER": 5307,
      "ĊĉĠĠ": 5308,
      "MM": 5309,
      "Month": 5310,
      "organ": 5311,
      "stats": 5312,
      "arily": 5313,
      "Sp": 5314,
      "Ġmedic": 5315,
      "Ġcaused": 5316,
      "ĠFOR": 5317,
      "Show": 5318,
      "prog": 5319,
      "disable": 5320,
      "ĠBritish": 5321,
      "ĠDepartment": 5322,
      "mitted": 5323,
      "Ġtools": 5324,
      "chart": 5325,
      "ners": 5326,
      "ription": 5327,
      "diff": 5328,
      "ĊĠĠĠĠĠĠĠĠĠĠĠĠĠĠĠĠĠĠĠĠĠĠĠĠĠĠ": 5329,
      "Ġclasses": 5330,
      "Ġconduct": 5331,
      "hidden": 5332,
      "pet": 5333,
      ">(": 5334,
      "ĊĉĠĠĠĠ": 5335,
      "Ġhom": 5336,
      "Ġtransport": 5337,
      "Ġimmediate": 5338,
      "Ġappropri": 5339,
      "TestCase": 5340,
      "Ġlove": 5341,
      "ality": 5342,
      "useum": 5343,
      ")[": 5344,
      "Ġemerg": 5345,
      "Ġeth": 5346,
      "Ġlooking": 5347,
      "fect": 5348,
      "Ġtouch": 5349,
      "lege": 5350,
      "My": 5351,
      "za": 5352,
      "shift": 5353,
      "Fn": 5354,
      "Ġindividuals": 5355,
      "bal": 5356,
      "æĹ": 5357,
      "ran": 5358,
      "groups": 5359,
      "Ġfast": 5360,
      "pring": 5361,
      "Red": 5362,
      "Ġfrag": 5363,
      "Ġenvironmental": 5364,
      "super": 5365,
      "']['": 5366,
      "ĠHis": 5367,
      "Ġmount": 5368,
      "Ste": 5369,
      "osph": 5370,
      "Ġcard": 5371,
      "Ġotherwise": 5372,
      "Que": 5373,
      "ĠExt": 5374,
      "mac": 5375,
      "react": 5376,
      "åŃ": 5377,
      "Ġgetting": 5378,
      "Ġfit": 5379,
      "Ġreset": 5380,
      "ĠCre": 5381,
      "Ġculture": 5382,
      "Ġcreating": 5383,
      "wp": 5384,
      "ummy": 5385,
      "ĠCor": 5386,
      "Grid": 5387,
      "Ġoptional": 5388,
      "storage": 5389,
      "ively": 5390,
      "abilities": 5391,
      "ĠWill": 5392,
      "Ġsetup": 5393,
      "Ġcook": 5394,
      "EventListener": 5395,
      "transform": 5396,
      "ODULE": 5397,
      "ĠSystem": 5398,
      "sib": 5399,
      "ĠOption": 5400,
      "ĠFree": 5401,
      "Active": 5402,
      "Ġ}).": 5403,
      "EOF": 5404,
      "Ġbring": 5405,
      "TYPE": 5406,
      "Meta": 5407,
      "stract": 5408,
      "Ġ$('#": 5409,
      "Ġreported": 5410,
      "Boolean": 5411,
      "ari": 5412,
      "Rect": 5413,
      "Ġ($": 5414,
      "ĠKing": 5415,
      "ga": 5416,
      "duration": 5417,
      "ND": 5418,
      "Ġnegative": 5419,
      "ĠCent": 5420,
      "Ġvers": 5421,
      "ERROR": 5422,
      "Ġwild": 5423,
      "wrap": 5424,
      "Ġdirection": 5425,
      "Ġstress": 5426,
      "Ġfront": 5427,
      "pool": 5428,
      "Ġsurv": 5429,
      "ĠĠĠĠĠĠĠĠĠĠ": 5430,
      "ĠWhile": 5431,
      "OwnProperty": 5432,
      "Del": 5433,
      "Ãª": 5434,
      "duce": 5435,
      "Ġmental": 5436,
      "Ġthird": 5437,
      "idge": 5438,
      "Ġsex": 5439,
      "Ġmodify": 5440,
      "ĠCity": 5441,
      "Order": 5442,
      "ronic": 5443,
      "Ġsociety": 5444,
      "course": 5445,
      "Ġsometimes": 5446,
      "ÑĪ": 5447,
      "Ġcit": 5448,
      "Ġassess": 5449,
      "Ġtimeout": 5450,
      "ĠAustral": 5451,
      "Ġexact": 5452,
      "Ġheav": 5453,
      "gt": 5454,
      "player": 5455,
      "errors": 5456,
      "ĠWARRANTIES": 5457,
      "Ġpush": 5458,
      "Args": 5459,
      "ĠHTML": 5460,
      "ĠTR": 5461,
      "Ġdamage": 5462,
      "$/": 5463,
      "MD": 5464,
      "after": 5465,
      "cut": 5466,
      "ĠRE": 5467,
      "ored": 5468,
      "otes": 5469,
      "ILITY": 5470,
      "Ġmis": 5471,
      "CHO": 5472,
      "Ġpermissions": 5473,
      "Ġinstanceof": 5474,
      "ĠClass": 5475,
      "ferred": 5476,
      "wait": 5477,
      "Ġprobably": 5478,
      "Cell": 5479,
      "iam": 5480,
      "CP": 5481,
      "Icon": 5482,
      "onom": 5483,
      "Ġrepe": 5484,
      "()).": 5485,
      "Ġpython": 5486,
      "ĠLog": 5487,
      "Ġregard": 5488,
      "hi": 5489,
      "ederal": 5490,
      "Ġwatch": 5491,
      "Ġhelps": 5492,
      "Ġshift": 5493,
      "Ġabsol": 5494,
      "blank": 5495,
      "car": 5496,
      "Ġreview": 5497,
      "\\.": 5498,
      "structure": 5499,
      "href": 5500,
      "æĺ": 5501,
      "Ġcross": 5502,
      "high": 5503,
      "Ġbenefits": 5504,
      "hicle": 5505,
      "Ġslow": 5506,
      "cos": 5507,
      "Ġdistance": 5508,
      "Ġdie": 5509,
      "Ġden": 5510,
      "oring": 5511,
      "ĠFirst": 5512,
      "Ġroom": 5513,
      "Ð½Ð¾": 5514,
      "INE": 5515,
      "Ġsqu": 5516,
      "ATA": 5517,
      "ĠTra": 5518,
      "ector": 5519,
      "serial": 5520,
      "Ġpatient": 5521,
      "Â¾": 5522,
      "Ġagreed": 5523,
      "effect": 5524,
      "rea": 5525,
      "free": 5526,
      "hol": 5527,
      "site": 5528,
      "Ġpackage": 5529,
      "Ġcompar": 5530,
      "Ġlack": 5531,
      "Ġdeli": 5532,
      "manager": 5533,
      "ceptions": 5534,
      "Ġpict": 5535,
      "Ä±": 5536,
      "Ġskip": 5537,
      "uous": 5538,
      "Ġbrowser": 5539,
      "(__": 5540,
      "'\"": 5541,
      "enable": 5542,
      "acing": 5543,
      "projects": 5544,
      "Ġschools": 5545,
      "Ġlives": 5546,
      "atically": 5547,
      "Ġmilitary": 5548,
      "ĠTH": 5549,
      "Ġpromise": 5550,
      "argument": 5551,
      "ĠÐ¼": 5552,
      "Ne": 5553,
      "final": 5554,
      "LL": 5555,
      "Ġdifference": 5556,
      "production": 5557,
      "FAULT": 5558,
      "+\"": 5559,
      "Ġmulti": 5560,
      "Ġmovement": 5561,
      "Ġwrapper": 5562,
      "Ġtx": 5563,
      "Ġtf": 5564,
      "ĊĉĉĊĉ": 5565,
      "stat": 5566,
      "Plugin": 5567,
      "Ġdestroy": 5568,
      ")/": 5569,
      "Â®": 5570,
      "attributes": 5571,
      "ka": 5572,
      "Require": 5573,
      "Ġeat": 5574,
      "Ġgender": 5575,
      "Ġwalk": 5576,
      "clean": 5577,
      "dx": 5578,
      "ĠPres": 5579,
      "Ġremote": 5580,
      "Ġcop": 5581,
      "complete": 5582,
      ":`": 5583,
      "Ġguide": 5584,
      "arter": 5585,
      "createElement": 5586,
      "Ġconc": 5587,
      "Port": 5588,
      "Ġ\"<": 5589,
      "ĠDOM": 5590,
      "andid": 5591,
      "resses": 5592,
      "Ġvert": 5593,
      "machine": 5594,
      "ĠĊĉĉĉ": 5595,
      "Ins": 5596,
      "Ġ}),": 5597,
      "++;": 5598,
      "Values": 5599,
      "ecause": 5600,
      "Ġgrid": 5601,
      "iency": 5602,
      "ĠIE": 5603,
      "Ġprojects": 5604,
      "kens": 5605,
      "pers": 5606,
      "video": 5607,
      "Sign": 5608,
      "Unit": 5609,
      "ĠNumber": 5610,
      "xx": 5611,
      "ÐµÐ»": 5612,
      "ASS": 5613,
      "Details": 5614,
      "ring": 5615,
      "ĠIP": 5616,
      "asons": 5617,
      "Ġdaily": 5618,
      "Ġabsolute": 5619,
      "dro": 5620,
      "Ġmusc": 5621,
      "ĠSy": 5622,
      "ĠLO": 5623,
      "Ġmath": 5624,
      "removeClass": 5625,
      "Ġanimal": 5626,
      "ĠInter": 5627,
      "Dict": 5628,
      "original": 5629,
      "uman": 5630,
      "HP": 5631,
      "Ã¶": 5632,
      "Ġfoot": 5633,
      "Sync": 5634,
      "Ġfoo": 5635,
      "IR": 5636,
      "pa": 5637,
      "avigation": 5638,
      "power": 5639,
      "Ġfont": 5640,
      "Ġstd": 5641,
      "Ġnothing": 5642,
      "Ġ\".": 5643,
      "Ax": 5644,
      "ĠOpen": 5645,
      "Access": 5646,
      "ĠMo": 5647,
      "modules": 5648,
      "ots": 5649,
      "atur": 5650,
      "Device": 5651,
      "Ġrev": 5652,
      "iddleware": 5653,
      "care": 5654,
      "while": 5655,
      "Ġ\"\",": 5656,
      "Ġwrap": 5657,
      "Ġmoment": 5658,
      "Ġinj": 5659,
      "ato": 5660,
      "owner": 5661,
      "Ġgenerated": 5662,
      "Us": 5663,
      "Ġpsy": 5664,
      "ounded": 5665,
      "Body": 5666,
      "Ġvariety": 5667,
      "Ġmechan": 5668,
      "imately": 5669,
      "ĠRep": 5670,
      "Integer": 5671,
      "Msg": 5672,
      "cto": 5673,
      "Ġattempt": 5674,
      "warn": 5675,
      "fit": 5676,
      "ĠProject": 5677,
      "Ġanswer": 5678,
      "Ġsn": 5679,
      "Next": 5680,
      "ĠJes": 5681,
      "ancy": 5682,
      "Ġminutes": 5683,
      "destroy": 5684,
      "ĠFunction": 5685,
      "Right": 5686,
      "Ġ(_": 5687,
      "ÃĲÂ": 5688,
      "Ġ'$": 5689,
      "tests": 5690,
      "Math": 5691,
      "clone": 5692,
      "short": 5693,
      "Ġtro": 5694,
      "Ġinterpre": 5695,
      "Me": 5696,
      "Ġsea": 5697,
      "Ġleading": 5698,
      "virtual": 5699,
      "IX": 5700,
      "Ġduration": 5701,
      "Ġisn": 5702,
      "GR": 5703,
      "Ġ..": 5704,
      "Ġplayer": 5705,
      "nes": 5706,
      "Entry": 5707,
      "Iter": 5708,
      "Ð¹": 5709,
      "Ġbelieve": 5710,
      "grad": 5711,
      "ils": 5712,
      "PACK": 5713,
      "Ġcho": 5714,
      "Ġship": 5715,
      "Tool": 5716,
      "ĊĊĉĉĉĉ": 5717,
      "rule": 5718,
      "ãģĻ": 5719,
      "Ġstreng": 5720,
      "ĠRequest": 5721,
      "Ġestim": 5722,
      "=-": 5723,
      "Ġconvert": 5724,
      "Ġconstant": 5725,
      "Ġsplit": 5726,
      "}.": 5727,
      "plies": 5728,
      "Attr": 5729,
      "React": 5730,
      "master": 5731,
      "Ge": 5732,
      "Ġicon": 5733,
      "loaded": 5734,
      "Ð¸Ñı": 5735,
      ">&": 5736,
      "License": 5737,
      "Ġresp": 5738,
      "Lower": 5739,
      "Mult": 5740,
      "contin": 5741,
      "heet": 5742,
      "router": 5743,
      "screen": 5744,
      "ĠLib": 5745,
      ")(": 5746,
      "Ġbottom": 5747,
      "stant": 5748,
      "swith": 5749,
      "è¡": 5750,
      "pu": 5751,
      "before": 5752,
      "Ġconver": 5753,
      "Ġedit": 5754,
      "Root": 5755,
      "FOR": 5756,
      "schema": 5757,
      "Ġearth": 5758,
      "Ġapplicable": 5759,
      "ĠSpec": 5760,
      "*:": 5761,
      "home": 5762,
      "servation": 5763,
      "ĠBase": 5764,
      "Comple": 5765,
      "Ġplugin": 5766,
      "Ġdevices": 5767,
      "ball": 5768,
      "ĠÎ": 5769,
      "rot": 5770,
      "water": 5771,
      "Ġnumpy": 5772,
      "Ġfa": 5773,
      "Selected": 5774,
      "ĠJan": 5775,
      "olicies": 5776,
      "Editor": 5777,
      "va": 5778,
      "Tab": 5779,
      "invalid": 5780,
      "anks": 5781,
      "CharField": 5782,
      "more": 5783,
      "Ñĸ": 5784,
      "IMARY": 5785,
      "ãģĹãģ": 5786,
      "loader": 5787,
      "sect": 5788,
      "bool": 5789,
      "Ġwin": 5790,
      "**/": 5791,
      "Stack": 5792,
      "Ġhar": 5793,
      "wik": 5794,
      "Su": 5795,
      "city": 5796,
      "ĠCenter": 5797,
      "Ġbeginning": 5798,
      "]),": 5799,
      "aly": 5800,
      "Ġinvolved": 5801,
      "aint": 5802,
      "aign": 5803,
      "oday": 5804,
      "System": 5805,
      "Pop": 5806,
      "ula": 5807,
      "ĊĠĠĠĠĠĠĠĠĠĠĠĠĠĠĠĠĠĠĠĠĠĠĠĠĠĠĠĠĠ": 5808,
      "Ġcompliance": 5809,
      "Selection": 5810,
      "ĠScience": 5811,
      "aining": 5812,
      "parameters": 5813,
      "ugar": 5814,
      "visible": 5815,
      "card": 5816,
      "ĠRet": 5817,
      "Ġanything": 5818,
      "ç»": 5819,
      "ĠHere": 5820,
      "haps": 5821,
      "Ġenable": 5822,
      "angular": 5823,
      "Ġpoor": 5824,
      "acts": 5825,
      "Ġteachers": 5826,
      "Ġdemon": 5827,
      "hard": 5828,
      "itect": 5829,
      "Ġlabor": 5830,
      "âĢļ": 5831,
      "Ġproced": 5832,
      "className": 5833,
      "Ġcompet": 5834,
      "orders": 5835,
      "åį": 5836,
      "Ġwhose": 5837,
      "Ġcombin": 5838,
      "IMIT": 5839,
      "Ġbird": 5840,
      "Ġencour": 5841,
      "Ġxml": 5842,
      "ĠSte": 5843,
      "Ġchart": 5844,
      "ĊĊĊ": 5845,
      "arrow": 5846,
      "fetch": 5847,
      "iling": 5848,
      "Ġcontract": 5849,
      "cy": 5850,
      "çĶ¨": 5851,
      "picker": 5852,
      "ĠMAX": 5853,
      "release": 5854,
      "Ġmaster": 5855,
      "âĢ¢": 5856,
      "Ġhref": 5857,
      "exception": 5858,
      "Ġmatches": 5859,
      "Tr": 5860,
      "uplic": 5861,
      "Ġmissing": 5862,
      "ĠÑĢ": 5863,
      "Ġnumer": 5864,
      "Ġsec": 5865,
      "Ġlimitations": 5866,
      "ĠPython": 5867,
      "Ġcomponents": 5868,
      "actual": 5869,
      "IME": 5870,
      "Ġinternational": 5871,
      "curr": 5872,
      "bas": 5873,
      "world": 5874,
      "Ġideas": 5875,
      "thes": 5876,
      "attribute": 5877,
      "emon": 5878,
      "addr": 5879,
      "slide": 5880,
      "Ġwall": 5881,
      "Ġdecre": 5882,
      "ordinates": 5883,
      "skip": 5884,
      "Rel": 5885,
      "Ġseems": 5886,
      "inv": 5887,
      "ĠEast": 5888,
      "Ġparticularly": 5889,
      "DIT": 5890,
      "ĠPRIMARY": 5891,
      "å¼": 5892,
      "ĠSw": 5893,
      "Ġorganization": 5894,
      "Ġcoding": 5895,
      "ECT": 5896,
      "ĠDESC": 5897,
      "clus": 5898,
      "Fix": 5899,
      "eline": 5900,
      "Ġgenerally": 5901,
      "Empty": 5902,
      "ien": 5903,
      "Ġtags": 5904,
      "Ġquantity": 5905,
      "Ġago": 5906,
      "entials": 5907,
      "ãģ«": 5908,
      "Layer": 5909,
      "ography": 5910,
      "pic": 5911,
      "Ġ',": 5912,
      "unn": 5913,
      "ĊĉĉĠĠĠ": 5914,
      "unique": 5915,
      "Many": 5916,
      "limit": 5917,
      "Ġ'--": 5918,
      "Process": 5919,
      "=(": 5920,
      "Ġ\\\"": 5921,
      "platform": 5922,
      "Ġord": 5923,
      "Ġscientists": 5924,
      "inct": 5925,
      "(!": 5926,
      "rab": 5927,
      "Ġindepend": 5928,
      "cloud": 5929,
      "Ġsolar": 5930,
      "Last": 5931,
      ")):": 5932,
      "kg": 5933,
      "Ġattention": 5934,
      "Ġcharacters": 5935,
      ">>": 5936,
      "Ġapplied": 5937,
      "ĠMore": 5938,
      "oted": 5939,
      "MP": 5940,
      "issue": 5941,
      "serialize": 5942,
      "Ġelectric": 5943,
      "buf": 5944,
      "Ġtopic": 5945,
      "jection": 5946,
      "exist": 5947,
      "eks": 5948,
      "Ġexecute": 5949,
      "åĮ": 5950,
      "Ġmouse": 5951,
      "Ġsound": 5952,
      "Ġemot": 5953,
      "batch": 5954,
      "è®": 5955,
      "åº": 5956,
      "Ġforest": 5957,
      "ontal": 5958,
      "itation": 5959,
      "ECHO": 5960,
      "SH": 5961,
      "OST": 5962,
      "Ġsomeone": 5963,
      "ĠLicensed": 5964,
      "WAR": 5965,
      "]['": 5966,
      "comment": 5967,
      "Ġnews": 5968,
      "pm": 5969,
      "pol": 5970,
      "ceed": 5971,
      "Ã£o": 5972,
      "Ġextreme": 5973,
      "ABILITY": 5974,
      "cmp": 5975,
      "Ġexpert": 5976,
      "policy": 5977,
      "Ġdry": 5978,
      "Found": 5979,
      "(*": 5980,
      "Float": 5981,
      "them": 5982,
      "Ġproduced": 5983,
      "ĠYour": 5984,
      "Ġwebsite": 5985,
      "ĠJew": 5986,
      "Pref": 5987,
      "Ġmut": 5988,
      "aaaa": 5989,
      "ĠDes": 5990,
      "Ġrot": 5991,
      "ua": 5992,
      "Ġbacter": 5993,
      "ĠLoc": 5994,
      "ief": 5995,
      "Ġmonitor": 5996,
      "'+": 5997,
      "Ġwood": 5998,
      "Ġexamples": 5999,
      "Ġseason": 6000,
      "Ð°ÑĢ": 6001,
      "zip": 6002,
      "ario": 6003,
      "oves": 6004,
      "Ġgrowing": 6005,
      "Connection": 6006,
      "Ġeasily": 6007,
      "kit": 6008,
      "Ġaware": 6009,
      "Ġpaths": 6010,
      "dash": 6011,
      "Nodes": 6012,
      "Raises": 6013,
      "\\/": 6014,
      "Ġyes": 6015,
      "('<": 6016,
      "Ġneigh": 6017,
      "ĊĉĉĠ": 6018,
      "LOG": 6019,
      "Ġentity": 6020,
      "primary": 6021,
      "iny": 6022,
      "Ġfoods": 6023,
      "å¹": 6024,
      "POST": 6025,
      "role": 6026,
      "toggle": 6027,
      "Ð³": 6028,
      "ships": 6029,
      "Ġsequence": 6030,
      "asure": 6031,
      "âĤ¬": 6032,
      "Ġappropriate": 6033,
      "raz": 6034,
      "methods": 6035,
      "Ġcapacity": 6036,
      "=\\\"": 6037,
      "Ġut": 6038,
      "First": 6039,
      "ington": 6040,
      "Ġten": 6041,
      "Ġtrees": 6042,
      "ĠChina": 6043,
      "Ġenter": 6044,
      "Ġdeveloping": 6045,
      "Ġinstit": 6046,
      "gree": 6047,
      "Task": 6048,
      "/***/": 6049,
      "SP": 6050,
      "Ġround": 6051,
      "qgis": 6052,
      "elt": 6053,
      "Ġdepth": 6054,
      "ĠTech": 6055,
      "ospital": 6056,
      "Ġbirth": 6057,
      "å°": 6058,
      "ĠÑĤ": 6059,
      "Ġhabit": 6060,
      "Ġtraditional": 6061,
      "ilk": 6062,
      "layout": 6063,
      "ened": 6064,
      "Ġthus": 6065,
      "urg": 6066,
      "END": 6067,
      "Ġoperations": 6068,
      "ugust": 6069,
      "internal": 6070,
      "SION": 6071,
      "ĠWork": 6072,
      "dt": 6073,
      "ims": 6074,
      "bytes": 6075,
      "éĩ": 6076,
      "ifications": 6077,
      "Ġeditor": 6078,
      "porary": 6079,
      "\"])": 6080,
      "Ġpatch": 6081,
      "Ġbooks": 6082,
      "Ġaspect": 6083,
      "Ġreflect": 6084,
      "ĠHigh": 6085,
      "Ġcompared": 6086,
      ")\",": 6087,
      "cred": 6088,
      "Ġclin": 6089,
      "ãģ§": 6090,
      "Ġserious": 6091,
      "Children": 6092,
      "Ġkids": 6093,
      "Load": 6094,
      "Ġeverything": 6095,
      "Ġveget": 6096,
      "Ġplot": 6097,
      "Ġgover": 6098,
      "usage": 6099,
      "translate": 6100,
      "abetes": 6101,
      "Session": 6102,
      "Ġdemonstr": 6103,
      "Ġdistribution": 6104,
      "raries": 6105,
      "ULL": 6106,
      "bes": 6107,
      "-%": 6108,
      "Ġtransaction": 6109,
      "Queue": 6110,
      "ĠUN": 6111,
      "dig": 6112,
      "issions": 6113,
      "ĠIndia": 6114,
      "border": 6115,
      "sql": 6116,
      "Ġcat": 6117,
      "Ġcam": 6118,
      "EG": 6119,
      "aks": 6120,
      "LICENSE": 6121,
      "factory": 6122,
      "semb": 6123,
      "ĠTem": 6124,
      "Ġalign": 6125,
      "Ġtherefore": 6126,
      "uploads": 6127,
      "ĠOver": 6128,
      "Ġlarger": 6129,
      "icip": 6130,
      "Ġinform": 6131,
      "ĠNow": 6132,
      "Ġpan": 6133,
      "Ġtravel": 6134,
      "Ġ'\"": 6135,
      "Ġcorrespon": 6136,
      "Ġmachine": 6137,
      "Ġmeta": 6138,
      "[^": 6139,
      "ĠÃĲ": 6140,
      "Ġsus": 6141,
      "Ġready": 6142,
      "Ġaccur": 6143,
      "+'": 6144,
      "æī": 6145,
      "azy": 6146,
      "enabled": 6147,
      "\"},": 6148,
      "ĠKIND": 6149,
      "assertRaises": 6150,
      "cmds": 6151,
      "Ġthread": 6152,
      "Ġnight": 6153,
      "ĠMany": 6154,
      "ĠInit": 6155,
      "Ġfinancial": 6156,
      "Ġvisible": 6157,
      "ĠNode": 6158,
      "Ġsyn": 6159,
      "Ġrecords": 6160,
      "messages": 6161,
      "library": 6162,
      "Ġtim": 6163,
      "lambda": 6164,
      "Ġson": 6165,
      "Ġfragment": 6166,
      "Ġfailure": 6167,
      "Mat": 6168,
      "Ã³n": 6169,
      "changed": 6170,
      "ĠDi": 6171,
      "Æ°": 6172,
      "package": 6173,
      "inf": 6174,
      "iques": 6175,
      "erm": 6176,
      "Ġones": 6177,
      "ãĥ³": 6178,
      "ĠGroup": 6179,
      "Ġ[{": 6180,
      "Ġmid": 6181,
      "plates": 6182,
      "Ġabs": 6183,
      "Ġsupply": 6184,
      "Ġfeet": 6185,
      "Ġutf": 6186,
      "Ġpurpose": 6187,
      "Properties": 6188,
      "OK": 6189,
      "Ġeye": 6190,
      "found": 6191,
      "Ġlambda": 6192,
      "Ġnotice": 6193,
      "itter": 6194,
      "irit": 6195,
      "Div": 6196,
      "warning": 6197,
      "Ġbytes": 6198,
      "ĠProgram": 6199,
      "derr": 6200,
      "fa": 6201,
      "olid": 6202,
      "Ġui": 6203,
      "pat": 6204,
      "Ġowner": 6205,
      "thread": 6206,
      "activ": 6207,
      "road": 6208,
      "Ġwidget": 6209,
      "Core": 6210,
      "coll": 6211,
      "Ġstage": 6212,
      "price": 6213,
      "Ġmerge": 6214,
      "CSS": 6215,
      "Ġsteps": 6216,
      "dialog": 6217,
      "Ġ*)": 6218,
      "igration": 6219,
      "__)": 6220,
      "Ð¾ÑĤ": 6221,
      "esh": 6222,
      "oe": 6223,
      "ĠForm": 6224,
      "inese": 6225,
      "selector": 6226,
      "stringify": 6227,
      "Ġquickly": 6228,
      "ria": 6229,
      "Ġwaste": 6230,
      "ĠSer": 6231,
      "Ġextract": 6232,
      "Ġinvalid": 6233,
      "Ġshell": 6234,
      "PER": 6235,
      "dtype": 6236,
      "selection": 6237,
      "Ġsolution": 6238,
      "ategories": 6239,
      "zen": 6240,
      "Ġplaces": 6241,
      "ĠHistory": 6242,
      "ĠRuss": 6243,
      "Ð¾Ð³": 6244,
      "ĠDefault": 6245,
      "Ġstarting": 6246,
      "ĠĠĠĠĠĠĠĠĠĠĠĠĠĠĠĠĠĠĠ": 6247,
      "tick": 6248,
      "Ġgoverning": 6249,
      "ĠSchool": 6250,
      "ĠEl": 6251,
      "Cre": 6252,
      "gi": 6253,
      "Ġreceive": 6254,
      "dst": 6255,
      "Ġsuccessful": 6256,
      "ä¸Ģ": 6257,
      "Http": 6258,
      "Post": 6259,
      "Work": 6260,
      "extra": 6261,
      "ĠCommun": 6262,
      ")',": 6263,
      "ê°": 6264,
      "Ġenumer": 6265,
      "Ġtuple": 6266,
      "ĠMost": 6267,
      "Ġtick": 6268,
      "Ġsin": 6269,
      "ocket": 6270,
      "Don": 6271,
      ">\"": 6272,
      "Ġast": 6273,
      "Ġsales": 6274,
      "ĠAfrica": 6275,
      "antic": 6276,
      "lang": 6277,
      "ajax": 6278,
      "Ġrelationship": 6279,
      "Ġgrant": 6280,
      "Ġquite": 6281,
      "LowerCase": 6282,
      "Ġleaders": 6283,
      "Ġdestination": 6284,
      "Ġdigital": 6285,
      "merge": 6286,
      "Ġ'')": 6287,
      "Domain": 6288,
      "ÑĦ": 6289,
      "ito": 6290,
      "ĠAR": 6291,
      "Ġconflict": 6292,
      "Ġworkers": 6293,
      "rypto": 6294,
      "bottom": 6295,
      "Ð¾Ð½": 6296,
      "Ġnamespace": 6297,
      "Ġtheory": 6298,
      "ferences": 6299,
      "ota": 6300,
      "AND": 6301,
      "ĠSch": 6302,
      ".\")": 6303,
      "argv": 6304,
      "Feature": 6305,
      "Account": 6306,
      "URE": 6307,
      "bi": 6308,
      "sn": 6309,
      "Ġwarm": 6310,
      "Route": 6311,
      "Ġloop": 6312,
      "USA": 6313,
      "Ġconcent": 6314,
      "Cur": 6315,
      "Ġ\"${": 6316,
      "Ġqueue": 6317,
      "Variable": 6318,
      "eces": 6319,
      "Ġestablished": 6320,
      "ĠChild": 6321,
      "'''": 6322,
      "Ġwriter": 6323,
      "checked": 6324,
      "Ġinvestig": 6325,
      "decode": 6326,
      "Ġpayload": 6327,
      "NS": 6328,
      "ixin": 6329,
      "Ġprovider": 6330,
      "Ġseed": 6331,
      "deep": 6332,
      "lying": 6333,
      "ĠEuropean": 6334,
      "çĽ": 6335,
      "Ġbab": 6336,
      "Ġachieve": 6337,
      "Ġcivil": 6338,
      "Inst": 6339,
      "Ġswe": 6340,
      "uler": 6341,
      "Ġtypically": 6342,
      "istr": 6343,
      "Ġutils": 6344,
      "ãĤĭ": 6345,
      "life": 6346,
      "CD": 6347,
      "Ġborder": 6348,
      "classes": 6349,
      "ees": 6350,
      "docs": 6351,
      "catch": 6352,
      "Ġtend": 6353,
      "Ġheld": 6354,
      "tty": 6355,
      "Ġiniti": 6356,
      "arian": 6357,
      "ida": 6358,
      "lat": 6359,
      "mine": 6360,
      "plications": 6361,
      "Delete": 6362,
      "Ġfactory": 6363,
      "health": 6364,
      "izontal": 6365,
      "Pass": 6366,
      "native": 6367,
      "ĠVol": 6368,
      "protocol": 6369,
      "oog": 6370,
      "Ġforward": 6371,
      "ĠAnt": 6372,
      "summary": 6373,
      "Sw": 6374,
      "ission": 6375,
      "Ġlinks": 6376,
      "Ġdeal": 6377,
      "_,": 6378,
      "Custom": 6379,
      "train": 6380,
      "ĠFile": 6381,
      "Enc": 6382,
      "ÅĤ": 6383,
      "Ġaudio": 6384,
      "Di": 6385,
      "Ġrepl": 6386,
      "Ġreader": 6387,
      "Ġcalls": 6388,
      "Ġbind": 6389,
      "loy": 6390,
      "Ġsocket": 6391,
      "ĠEmp": 6392,
      "ensity": 6393,
      "olec": 6394,
      "cursor": 6395,
      "Before": 6396,
      "ĠCountry": 6397,
      "Ġcapital": 6398,
      "Ġing": 6399,
      "Ġwent": 6400,
      "Full": 6401,
      "ä¼": 6402,
      "loading": 6403,
      "anguages": 6404,
      "future": 6405,
      "Ġtrying": 6406,
      "Ġscientific": 6407,
      "ham": 6408,
      "Ġlimited": 6409,
      "Ġfamilies": 6410,
      "Write": 6411,
      "Ġcritical": 6412,
      "WEB": 6413,
      "Ġdecision": 6414,
      "Ġlost": 6415,
      "ups": 6416,
      "Policy": 6417,
      "Ġtele": 6418,
      "Ã¨": 6419,
      "=%": 6420,
      "\"}": 6421,
      "Ġwind": 6422,
      "amily": 6423,
      "socket": 6424,
      "Channel": 6425,
      "ĠUnless": 6426,
      "Ã¢": 6427,
      "joy": 6428,
      "delta": 6429,
      "Ġthous": 6430,
      "ara": 6431,
      "ĠText": 6432,
      "ĠMus": 6433,
      "Ġbroad": 6434,
      "\"):": 6435,
      "ares": 6436,
      "ĠChar": 6437,
      "Ġbehind": 6438,
      "FS": 6439,
      "Ġprofile": 6440,
      "Ġstay": 6441,
      "ĠService": 6442,
      "ĠInternational": 6443,
      "Ġprincip": 6444,
      "Ġdefinition": 6445,
      "ĠAlso": 6446,
      "gb": 6447,
      "ĠHand": 6448,
      "some": 6449,
      "ya": 6450,
      "ĠFrench": 6451,
      "oration": 6452,
      "Ġexercise": 6453,
      "rf": 6454,
      "ĠQt": 6455,
      "Ġchoose": 6456,
      "Ġvacc": 6457,
      "ĠModel": 6458,
      "toLowerCase": 6459,
      "Ġtrade": 6460,
      "Ġfactor": 6461,
      "Player": 6462,
      "ological": 6463,
      "ao": 6464,
      "ixel": 6465,
      "UD": 6466,
      "Ġsoon": 6467,
      "(?:": 6468,
      "ocused": 6469,
      "Fore": 6470,
      "Ġwarn": 6471,
      "Ġ\"-": 6472,
      "Metadata": 6473,
      "Ġsector": 6474,
      "undred": 6475,
      "bra": 6476,
      "Ġanc": 6477,
      "ĊĊĉĠĠĠ": 6478,
      "ĠEducation": 6479,
      "Ġcolumns": 6480,
      "fake": 6481,
      "ĠÐ·": 6482,
      "ondon": 6483,
      "atell": 6484,
      "ilos": 6485,
      "logies": 6486,
      "ws": 6487,
      "Ġvisual": 6488,
      "depth": 6489,
      "browser": 6490,
      "Interval": 6491,
      "ulp": 6492,
      "Exec": 6493,
      "refresh": 6494,
      "isions": 6495,
      "igen": 6496,
      "Arr": 6497,
      "uries": 6498,
      "Ġmaximum": 6499,
      "Ġdiseases": 6500,
      "******/": 6501,
      "directory": 6502,
      "hest": 6503,
      "Ġalthough": 6504,
      "vs": 6505,
      "Ġcommunities": 6506,
      "ctors": 6507,
      "Ġ'@": 6508,
      "Ġreverse": 6509,
      "program": 6510,
      "west": 6511,
      "Ġhighly": 6512,
      "Ġfat": 6513,
      "Ġusername": 6514,
      "ĠLIMIT": 6515,
      "SED": 6516,
      "Ġrequests": 6517,
      "Ġapplications": 6518,
      "Ġjoin": 6519,
      "ĠINNER": 6520,
      "ÐºÐ¸": 6521,
      "Ġdescribed": 6522,
      "wer": 6523,
      "Ġsil": 6524,
      "Ġnotes": 6525,
      ".',": 6526,
      "chor": 6527,
      "Ġbinary": 6528,
      "Ġequipment": 6529,
      "ĠInstitute": 6530,
      "ĠĠĠĠĠĠĠĠĠĠĠĠĠĠĠ": 6531,
      "Display": 6532,
      "Ġpatterns": 6533,
      "ĠJune": 6534,
      "Ġdark": 6535,
      "Ġdecade": 6536,
      "Ġscore": 6537,
      "IGHT": 6538,
      ".'": 6539,
      "dot": 6540,
      "Ġconstruct": 6541,
      "Ġinstalled": 6542,
      "convert": 6543,
      "dem": 6544,
      "Ġsignal": 6545,
      "ĠBAS": 6546,
      "ĠExample": 6547,
      "ï¼ļ": 6548,
      "Ġpoly": 6549,
      "atis": 6550,
      "Ġadapt": 6551,
      "Ġblue": 6552,
      "ĠSk": 6553,
      "gorithm": 6554,
      "Ġencoding": 6555,
      "Â½": 6556,
      "quote": 6557,
      "Ġchain": 6558,
      "Ġunits": 6559,
      "ago": 6560,
      "Ġdoctor": 6561,
      "ci": 6562,
      "spl": 6563,
      "Ġbudget": 6564,
      "Ċĉĉĉĉĉĉĉĉĉĉ": 6565,
      "attrs": 6566,
      "DD": 6567,
      "faces": 6568,
      "Ġfollowed": 6569,
      "align": 6570,
      "ĠOnly": 6571,
      "Ġbur": 6572,
      "âĢĿ.": 6573,
      "Ġ^": 6574,
      "ĠInst": 6575,
      "stdout": 6576,
      "counter": 6577,
      "Ġfinally": 6578,
      "aul": 6579,
      "Ġcentral": 6580,
      "Ġ\"'": 6581,
      ":[": 6582,
      "plier": 6583,
      "Ġhumans": 6584,
      "tion": 6585,
      "Ġpages": 6586,
      "ĠGoogle": 6587,
      "Ġwrong": 6588,
      "Ġfetch": 6589,
      "Ġ{@": 6590,
      "prevent": 6591,
      "objs": 6592,
      "Ġvit": 6593,
      "lier": 6594,
      "ĠFrom": 6595,
      "zy": 6596,
      "Ġprotection": 6597,
      "AIN": 6598,
      "proxy": 6599,
      "Ġimplementation": 6600,
      "series": 6601,
      "DITIONS": 6602,
      "SA": 6603,
      "MODULE": 6604,
      "Ġimag": 6605,
      "ĊĠĠĠĠĠĠĠĠĠĠĠĠĠĠĠĠĠĠĠĠĠĠĠĠĠĠĠĠĠĠ": 6606,
      "Ġradi": 6607,
      "Move": 6608,
      "Ġ\"{": 6609,
      "Â¸": 6610,
      "ĠMarch": 6611,
      "ĠConfig": 6612,
      "undle": 6613,
      "acific": 6614,
      "Ġindust": 6615,
      "don": 6616,
      "soft": 6617,
      "namespace": 6618,
      "Ġthinking": 6619,
      "svg": 6620,
      ">/": 6621,
      "ĠSE": 6622,
      "çī": 6623,
      "urity": 6624,
      "generate": 6625,
      "Ġbecomes": 6626,
      "Ġgets": 6627,
      "Ġflags": 6628,
      "ĠHer": 6629,
      "PC": 6630,
      "ĠRun": 6631,
      "Product": 6632,
      "cn": 6633,
      "erred": 6634,
      "inder": 6635,
      "Only": 6636,
      "Prefix": 6637,
      "ĠHar": 6638,
      "']:": 6639,
      "UID": 6640,
      "agent": 6641,
      "Ġdelay": 6642,
      "iar": 6643,
      "Ġlaunch": 6644,
      "ĠCONDITIONS": 6645,
      "Record": 6646,
      "omb": 6647,
      "Ġdf": 6648,
      "entication": 6649,
      "Ġofficial": 6650,
      "ctober": 6651,
      "Play": 6652,
      "ius": 6653,
      "tf": 6654,
      "Ġinfection": 6655,
      "background": 6656,
      "Ġunknown": 6657,
      "Ġtowards": 6658,
      "icated": 6659,
      "Ġlab": 6660,
      "Ġencode": 6661,
      "nav": 6662,
      "audio": 6663,
      "Close": 6664,
      "Ġnuc": 6665,
      "ĠCalifornia": 6666,
      "Ġspecify": 6667,
      "Ġdisable": 6668,
      "FO": 6669,
      "Ġprotocol": 6670,
      "Axis": 6671,
      "Op": 6672,
      "present": 6673,
      "Ġgoal": 6674,
      "Ġtrain": 6675,
      "appendChild": 6676,
      "lands": 6677,
      "Changed": 6678,
      "ĠArch": 6679,
      "Qt": 6680,
      "Ġassum": 6681,
      "Ġolder": 6682,
      "ptember": 6683,
      "nections": 6684,
      "Some": 6685,
      "maps": 6686,
      "ĠIndian": 6687,
      "Ġprocesses": 6688,
      "Ġconstruction": 6689,
      "poses": 6690,
      "Ġleaves": 6691,
      "Ġprotein": 6692,
      "ora": 6693,
      "Ġexpand": 6694,
      "itable": 6695,
      "***": 6696,
      "ĠBar": 6697,
      "Ġ-=": 6698,
      "Ġvalidate": 6699,
      "Ġsituation": 6700,
      "cfg": 6701,
      "hasOwnProperty": 6702,
      "ĠChristian": 6703,
      "Ġ[[": 6704,
      "ĠBASIS": 6705,
      "cost": 6706,
      "imin": 6707,
      "Ġancient": 6708,
      "iring": 6709,
      "progress": 6710,
      "engine": 6711,
      "Ġpurch": 6712,
      "ooth": 6713,
      "Ð¸Ð½": 6714,
      "Ġfight": 6715,
      "ĠTr": 6716,
      "operation": 6717,
      "ĊĊĠĠĠĠĠĠĠĠĠĠĠĠĠĠĠĠĠĠĠĠĠĠĠ": 6718,
      "sibility": 6719,
      "Ġaff": 6720,
      "bound": 6721,
      "Ġmiddle": 6722,
      "istant": 6723,
      "ĠĊĠĠĠĠĠĠĠ": 6724,
      "Ġreve": 6725,
      "Ġoverride": 6726,
      "ĠJesus": 6727,
      "Ġupper": 6728,
      "Ġsevere": 6729,
      "Ġconcern": 6730,
      "aled": 6731,
      "Ġnation": 6732,
      "'];": 6733,
      "ĠPRO": 6734,
      "Ġinher": 6735,
      "Ġlocated": 6736,
      "/******/": 6737,
      "Failed": 6738,
      "ĠDav": 6739,
      "illa": 6740,
      "Ġviews": 6741,
      "attach": 6742,
      "men": 6743,
      "pattern": 6744,
      "ĠCounty": 6745,
      "ÐµÐ¼": 6746,
      "Ġdictionary": 6747,
      "ĠII": 6748,
      "ja": 6749,
      "Elements": 6750,
      "Ġwest": 6751,
      "Ġzero": 6752,
      "HTTP": 6753,
      "Ġteaching": 6754,
      "ovember": 6755,
      "gers": 6756,
      "Ġusage": 6757,
      "Ġuid": 6758,
      "cm": 6759,
      "hello": 6760,
      "Files": 6761,
      "Ġdispatch": 6762,
      "remote": 6763,
      "Ġdrag": 6764,
      "Ġpiece": 6765,
      "quantity": 6766,
      "nother": 6767,
      "Ġnorth": 6768,
      "urer": 6769,
      "ĠDay": 6770,
      "compute": 6771,
      "/%": 6772,
      "Ġparsed": 6773,
      "Ġgives": 6774,
      "Ġlegal": 6775,
      "expr": 6776,
      "Ġleave": 6777,
      "idence": 6778,
      "eria": 6779,
      "Ġbasis": 6780,
      "Ġfs": 6781,
      "Ġdrink": 6782,
      "driver": 6783,
      "ĠLI": 6784,
      "Ġrates": 6785,
      "Ġpara": 6786,
      "Helper": 6787,
      "Ġsold": 6788,
      "Ġbeaut": 6789,
      "Ġschema": 6790,
      "ano": 6791,
      "Ġdead": 6792,
      "Ġidx": 6793,
      "Ø³": 6794,
      "Ġfixture": 6795,
      "Ġspread": 6796,
      "Ġmask": 6797,
      "Ġweeks": 6798,
      "boot": 6799,
      "Ġagricult": 6800,
      "Ġcou": 6801,
      "drag": 6802,
      "loss": 6803,
      "ribution": 6804,
      "which": 6805,
      "Ġ'[": 6806,
      "Ġstrings": 6807,
      "(\\": 6808,
      "Ġvessel": 6809,
      "odies": 6810,
      "Ġseek": 6811,
      "USER": 6812,
      "Ġcele": 6813,
      "Ġgard": 6814,
      "apes": 6815,
      "servable": 6816,
      "ĠTypeError": 6817,
      "ĠAg": 6818,
      "Ġcontroller": 6819,
      "ĠparseInt": 6820,
      "ateway": 6821,
      "ille": 6822,
      "resol": 6823,
      "ĠChinese": 6824,
      "posite": 6825,
      "Ġremains": 6826,
      "rical": 6827,
      "Ġsch": 6828,
      "Ġcounter": 6829,
      "ĠAuth": 6830,
      "Ġlargest": 6831,
      "ĠApp": 6832,
      "duced": 6833,
      "ĠLear": 6834,
      "Ġremember": 6835,
      "Ġresponsible": 6836,
      "Remove": 6837,
      "ĠSan": 6838,
      "seq": 6839,
      "ĠOut": 6840,
      "Ġsouth": 6841,
      "Ġbatch": 6842,
      "stud": 6843,
      "ĠEnt": 6844,
      "Ġreserved": 6845,
      "contrib": 6846,
      "FR": 6847,
      "yy": 6848,
      "LEAN": 6849,
      "ĠMethod": 6850,
      "objdir": 6851,
      "Ġdiag": 6852,
      "aN": 6853,
      "utor": 6854,
      "rier": 6855,
      "Ġsets": 6856,
      "Ġrows": 6857,
      "Mem": 6858,
      "ĠBody": 6859,
      "nology": 6860,
      "Ġsites": 6861,
      "------------": 6862,
      "columns": 6863,
      "switch": 6864,
      "aid": 6865,
      "strap": 6866,
      "loop": 6867,
      "Ġshall": 6868,
      "Have": 6869,
      "Ġjud": 6870,
      "Ġdog": 6871,
      "Results": 6872,
      "Panel": 6873,
      "vi": 6874,
      "Ġdanger": 6875,
      "Expression": 6876,
      "depfile": 6877,
      "parentNode": 6878,
      "Des": 6879,
      "ĠTe": 6880,
      "trim": 6881,
      "rael": 6882,
      "Canada": 6883,
      "ĠAc": 6884,
      "Ġclone": 6885,
      "Ġcreation": 6886,
      "Ġcolon": 6887,
      "rieved": 6888,
      "Ġrecover": 6889,
      "heel": 6890,
      "Ġattach": 6891,
      "Ġacid": 6892,
      "Ġproviding": 6893,
      "ĠĊ": 6894,
      "Ġsugar": 6895,
      "Host": 6896,
      "timestamp": 6897,
      "ulner": 6898,
      "ĠMark": 6899,
      "history": 6900,
      "Ġchoice": 6901,
      "Ġlayout": 6902,
      "Ġavg": 6903,
      "ILED": 6904,
      "Ġseconds": 6905,
      "gnu": 6906,
      "ĠPol": 6907,
      "Ġcarry": 6908,
      "Eng": 6909,
      "Ġinner": 6910,
      "ereq": 6911,
      "tection": 6912,
      "Func": 6913,
      "rs": 6914,
      "well": 6915,
      "transaction": 6916,
      "Ġstored": 6917,
      "Ġinstr": 6918,
      "Ġorg": 6919,
      "ĠEach": 6920,
      "tools": 6921,
      "Ġserial": 6922,
      "Ġteacher": 6923,
      "Ġfriend": 6924,
      "æĿ": 6925,
      "ĠÐ±": 6926,
      "Ġcultural": 6927,
      "Ġplease": 6928,
      "Ġocean": 6929,
      "Ġtherapy": 6930,
      "ĠRead": 6931,
      "isation": 6932,
      "rast": 6933,
      "ĠWindow": 6934,
      "ÐµÐ´": 6935,
      "ĠAfrican": 6936,
      "mi": 6937,
      "bus": 6938,
      "ategy": 6939,
      "Ġdisabled": 6940,
      "Ġfully": 6941,
      "atin": 6942,
      "Ġdidn": 6943,
      "('\\": 6944,
      "')).": 6945,
      "leased": 6946,
      "Ġenabled": 6947,
      "protect": 6948,
      "STR": 6949,
      "tw": 6950,
      "Ġtheme": 6951,
      "Ġapprox": 6952,
      "Ġverbose": 6953,
      "Ġpredict": 6954,
      "ĠAlthough": 6955,
      "Rest": 6956,
      "Ġadjust": 6957,
      "ĠBuild": 6958,
      "ĠRel": 6959,
      "Ġcursor": 6960,
      "Ġsmaller": 6961,
      "ĠNor": 6962,
      "branch": 6963,
      "Visible": 6964,
      "Ġexpos": 6965,
      "While": 6966,
      "!!": 6967,
      "Ġcolors": 6968,
      "Ġextension": 6969,
      "/.": 6970,
      "ĠAugust": 6971,
      "lyph": 6972,
      "ĠYear": 6973,
      "Ġconnected": 6974,
      "stock": 6975,
      "MENT": 6976,
      "isms": 6977,
      "Ġkill": 6978,
      "Ġcommunication": 6979,
      "Ġattrs": 6980,
      "mean": 6981,
      "Ġdouble": 6982,
      "Ġmention": 6983,
      "Ġexternal": 6984,
      "fragment": 6985,
      "Ġsorted": 6986,
      "ĠRob": 6987,
      "signed": 6988,
      "Rule": 6989,
      "ĠAny": 6990,
      "paths": 6991,
      "Ġadults": 6992,
      "cember": 6993,
      "ĠGree": 6994,
      "ĠÐ½Ð°": 6995,
      "ĠElement": 6996,
      "inn": 6997,
      "è¦": 6998,
      "ĠCons": 6999,
      "Ġreasons": 7000,
      "Parameters": 7001,
      "Ġinteger": 7002,
      "raction": 7003,
      "Ġwarning": 7004,
      "Ġ'{": 7005,
      "Ġbehavi": 7006,
      "]).": 7007,
      "Ġpipe": 7008,
      "Operation": 7009,
      "Av": 7010,
      "rpath": 7011,
      "ifies": 7012,
      "Ġflu": 7013,
      "Ġdepartment": 7014,
      "Â»": 7015,
      "Ġincor": 7016,
      "ĠPark": 7017,
      "legate": 7018,
      "Enabled": 7019,
      "\"></": 7020,
      "ĠUnion": 7021,
      "Day": 7022,
      "åĩ": 7023,
      "Ġcompletely": 7024,
      "ĠPress": 7025,
      "ĠJuly": 7026,
      "pending": 7027,
      "Ġbrought": 7028,
      "gif": 7029,
      "security": 7030,
      "Ġpermission": 7031,
      "Ġgames": 7032,
      "Ident": 7033,
      "xff": 7034,
      "cons": 7035,
      "pected": 7036,
      "Vol": 7037,
      "INT": 7038,
      "exico": 7039,
      "Doc": 7040,
      "yond": 7041,
      "Ġreligious": 7042,
      "Ġ![": 7043,
      "promise": 7044,
      "Ġinterval": 7045,
      "Ġgoes": 7046,
      "iting": 7047,
      "publish": 7048,
      "ĠPort": 7049,
      "Ġchurch": 7050,
      "KE": 7051,
      "Ġtimestamp": 7052,
      "Ġcosts": 7053,
      "Step": 7054,
      "Car": 7055,
      "SC": 7056,
      "ashington": 7057,
      "olute": 7058,
      "components": 7059,
      ":%": 7060,
      "Ø¨": 7061,
      "Ġimportance": 7062,
      "Ġrock": 7063,
      "Ġprocessing": 7064,
      "Ġaffected": 7065,
      "ĠAssoci": 7066,
      "ĊĠĠĠĠĠĠĠĠĠĠĠĠĠĠĠĠĠĠĠĠĠĠĠĠĠĠĠĠĠĠĠĠĠĠĠĠĠĠĠĠĠĠĠĠĠĠĠĠĠĠĠĠĠĠĠĠ": 7067,
      "FT": 7068,
      "Ġaud": 7069,
      ">',": 7070,
      "rote": 7071,
      "rd": 7072,
      "Ġhundred": 7073,
      "ME": 7074,
      "'`": 7075,
      "tk": 7076,
      "exas": 7077,
      "PAR": 7078,
      "ĠJust": 7079,
      "????": 7080,
      "Ġcontents": 7081,
      "ĠMc": 7082,
      "ĠØ§ÙĦ": 7083,
      "Ġeyes": 7084,
      "imp": 7085,
      "getElementById": 7086,
      "PUT": 7087,
      "ĠLOG": 7088,
      "IA": 7089,
      "Ġpet": 7090,
      "provider": 7091,
      "Ġrouter": 7092,
      "Ġdialog": 7093,
      "Ġlibraries": 7094,
      "Ġoptim": 7095,
      "ä¿": 7096,
      "åĨ": 7097,
      "Ġinfluence": 7098,
      "ĠLa": 7099,
      "OOLEAN": 7100,
      "Ġdiagn": 7101,
      "Ġlibtool": 7102,
      "anese": 7103,
      "Spe": 7104,
      "ho": 7105,
      "å¯": 7106,
      "Sort": 7107,
      "ntax": 7108,
      "Ġaccom": 7109,
      "WS": 7110,
      "Ġweather": 7111,
      "Ġimmediately": 7112,
      "ĠStart": 7113,
      "blog": 7114,
      "egr": 7115,
      "cohol": 7116,
      "Ptr": 7117,
      "DEFAULT": 7118,
      "Word": 7119,
      "rat": 7120,
      "Ġrecommend": 7121,
      "sur": 7122,
      "è§": 7123,
      "kind": 7124,
      "ervices": 7125,
      "Ġanti": 7126,
      "kt": 7127,
      "Ġult": 7128,
      "FAILED": 7129,
      "ĠCanada": 7130,
      "ĠMet": 7131,
      "nic": 7132,
      "Ġhour": 7133,
      "apse": 7134,
      "folder": 7135,
      "person": 7136,
      "Local": 7137,
      "ĠHTTP": 7138,
      "ani": 7139,
      "Ġoccurs": 7140,
      "ĠDec": 7141,
      "Ġperfect": 7142,
      "Ġbra": 7143,
      "Ids": 7144,
      "Ġmoving": 7145,
      "Ġrare": 7146,
      "Ġfunding": 7147,
      "Ġbeyond": 7148,
      "æł": 7149,
      "Ġquant": 7150,
      "relative": 7151,
      "ĠApril": 7152,
      "safe": 7153,
      "Ġenjoy": 7154,
      ".')": 7155,
      "Ġnorm": 7156,
      "days": 7157,
      "Ġsaw": 7158,
      "dy": 7159,
      "Ġburn": 7160,
      "Ġregions": 7161,
      "nh": 7162,
      "oth": 7163,
      "iding": 7164,
      "OV": 7165,
      "Ġvict": 7166,
      "touch": 7167,
      "Num": 7168,
      "Ġstyles": 7169,
      "ĠVir": 7170,
      "Ġedge": 7171,
      "cancel": 7172,
      "Ġbeg": 7173,
      "uffix": 7174,
      "Ġinvok": 7175,
      "iform": 7176,
      "ĠPART": 7177,
      "LETE": 7178,
      "plan": 7179,
      "Ġtasks": 7180,
      "Ġseparate": 7181,
      "ä¹": 7182,
      "ĠHE": 7183,
      "Hub": 7184,
      "alert": 7185,
      ")}": 7186,
      "Ġhands": 7187,
      "details": 7188,
      "umps": 7189,
      "levant": 7190,
      "Ġstatement": 7191,
      "gypt": 7192,
      "Ġnearly": 7193,
      "hor": 7194,
      "Ġletter": 7195,
      "TEST": 7196,
      "plugins": 7197,
      "uits": 7198,
      "stone": 7199,
      "ceived": 7200,
      "Ġ::": 7201,
      "ãģª": 7202,
      "calc": 7203,
      "endor": 7204,
      "Network": 7205,
      "Ġna": 7206,
      "Graph": 7207,
      "ĠThen": 7208,
      "Ac": 7209,
      "frag": 7210,
      "ously": 7211,
      "Packet": 7212,
      "tp": 7213,
      "front": 7214,
      "rupt": 7215,
      "except": 7216,
      "alias": 7217,
      "Ġ```": 7218,
      "Ġoccurre": 7219,
      "ernel": 7220,
      "ĠEngland": 7221,
      "mal": 7222,
      "ĠSmith": 7223,
      "greg": 7224,
      "Ġ({": 7225,
      "Contents": 7226,
      "note": 7227,
      "ki": 7228,
      "symbol": 7229,
      "SET": 7230,
      "Mouse": 7231,
      "rev": 7232,
      "ĠKe": 7233,
      "PORTED": 7234,
      "WOR": 7235,
      "Ġeating": 7236,
      "ĠSim": 7237,
      "ĠSince": 7238,
      "ĠNet": 7239,
      "Ġcompleted": 7240,
      "Scale": 7241,
      "Ġlistener": 7242,
      "unknown": 7243,
      "preh": 7244,
      "å¸": 7245,
      "BC": 7246,
      "ãģĮ": 7247,
      "Ġdistrict": 7248,
      "ĠOur": 7249,
      "Main": 7250,
      "These": 7251,
      "Ġpanel": 7252,
      "')])": 7253,
      "TypeScript": 7254,
      "chron": 7255,
      "Ġruns": 7256,
      "resize": 7257,
      "Ġrapid": 7258,
      "peg": 7259,
      "Ġstrategy": 7260,
      "Ġtechniques": 7261,
      "PT": 7262,
      "ĊĊĠĠ": 7263,
      "dispatch": 7264,
      "inite": 7265,
      "ĠGovern": 7266,
      "Ġignored": 7267,
      "Ġtold": 7268,
      "dereq": 7269,
      "tre": 7270,
      "DA": 7271,
      "ãģ¨": 7272,
      "Ġlif": 7273,
      "Ġcommands": 7274,
      "Ġpractices": 7275,
      "tn": 7276,
      "isArray": 7277,
      "Ġborn": 7278,
      "ĊĊĉĠ": 7279,
      "Ð¾Ð¹": 7280,
      "DR": 7281,
      "craft": 7282,
      "interval": 7283,
      "Ġproto": 7284,
      "Ġ%(": 7285,
      "assets": 7286,
      "ãģ¾": 7287,
      "space": 7288,
      "ULAR": 7289,
      "preventDefault": 7290,
      "ighest": 7291,
      "features": 7292,
      "æķ°": 7293,
      "Ġloaded": 7294,
      "Program": 7295,
      "ji": 7296,
      "notation": 7297,
      "Ġinputs": 7298,
      "ulum": 7299,
      "Ġmodified": 7300,
      "High": 7301,
      "Json": 7302,
      "ventory": 7303,
      "={'": 7304,
      "arded": 7305,
      "Transform": 7306,
      "ĠRemove": 7307,
      "Ġfair": 7308,
      "Ġdegree": 7309,
      "FIG": 7310,
      "________": 7311,
      "Ġproperly": 7312,
      "NESS": 7313,
      "Ġeast": 7314,
      "Media": 7315,
      "eding": 7316,
      "iat": 7317,
      "framework": 7318,
      "Ġfigure": 7319,
      "Ġadvant": 7320,
      "ouncil": 7321,
      "hav": 7322,
      "Ġfake": 7323,
      "sd": 7324,
      "NG": 7325,
      "grees": 7326,
      "nergy": 7327,
      "cheme": 7328,
      "Drop": 7329,
      "verify": 7330,
      "Changes": 7331,
      "ongs": 7332,
      "Ġice": 7333,
      "Ġrepo": 7334,
      "Ġidentity": 7335,
      "Ġrout": 7336,
      "Ġbenefit": 7337,
      "phas": 7338,
      "Attributes": 7339,
      "olog": 7340,
      "Ġefforts": 7341,
      "Ġsummer": 7342,
      "Ġsql": 7343,
      "Ġyourself": 7344,
      "modal": 7345,
      "Ġboard": 7346,
      "when": 7347,
      "ĠTime": 7348,
      "Section": 7349,
      "Ġreadonly": 7350,
      "Ġgoogle": 7351,
      "(\".": 7352,
      "Ġbacteria": 7353,
      ">\\": 7354,
      "GB": 7355,
      "Ġcoast": 7356,
      "EAR": 7357,
      "pick": 7358,
      "Ġrecently": 7359,
      "vars": 7360,
      "wide": 7361,
      "Ġrm": 7362,
      "Ġcold": 7363,
      "ĠId": 7364,
      "Ġrank": 7365,
      "Ġextend": 7366,
      "ĠOrgan": 7367,
      "Ġcitiz": 7368,
      "subscribe": 7369,
      "resources": 7370,
      "ĠEm": 7371,
      ").__": 7372,
      "Ġenh": 7373,
      "Ġasked": 7374,
      "Ġdefaults": 7375,
      "HR": 7376,
      "Ġearlier": 7377,
      "REE": 7378,
      "PA": 7379,
      "panel": 7380,
      "Ġfib": 7381,
      "ingu": 7382,
      "parts": 7383,
      "Ġtermin": 7384,
      "decl": 7385,
      "Ġdescript": 7386,
      "ĠBecause": 7387,
      "Intern": 7388,
      "Ġanimation": 7389,
      "POSE": 7390,
      "VERSION": 7391,
      "bad": 7392,
      "Sm": 7393,
      "Ġdriver": 7394,
      "[];": 7395,
      "Ġrich": 7396,
      "rum": 7397,
      "ĠJournal": 7398,
      "Ġoverall": 7399,
      "rill": 7400,
      "ĠOctober": 7401,
      "Health": 7402,
      "ĠPost": 7403,
      "iot": 7404,
      "delay": 7405,
      "Ġappend": 7406,
      "stdlib": 7407,
      "ĠPUR": 7408,
      "Ġmoved": 7409,
      "estic": 7410,
      "Ġchunk": 7411,
      "TIME": 7412,
      "amma": 7413,
      "Ġfavor": 7414,
      "Ġli": 7415,
      "Ġstrength": 7416,
      "ĠVer": 7417,
      "ãģ¯": 7418,
      "Non": 7419,
      "Configuration": 7420,
      "Ġfederal": 7421,
      "rops": 7422,
      "Ð°Ð²": 7423,
      "Ġ./": 7424,
      "Ġarchitect": 7425,
      "Ġflex": 7426,
      "Ġphase": 7427,
      "iÃ³n": 7428,
      "sim": 7429,
      "Ġcustomer": 7430,
      "SUB": 7431,
      "Ġprofessional": 7432,
      "ÃĲÂµ": 7433,
      "\":[": 7434,
      "ĠBlock": 7435,
      "Ġmission": 7436,
      "oting": 7437,
      "opes": 7438,
      "team": 7439,
      "Ġcelebr": 7440,
      "Ġ\"\";": 7441,
      "rief": 7442,
      "Ġforces": 7443,
      "math": 7444,
      "Ġ--------": 7445,
      "ĊĠĠĠĠĠĠĠĠĠĠĠĠĠĠĠĠĠĠĠĠĠĠĠĠĠĠĠĠĠĠĠĠĠĠĠĠĠĠĠĠĠĠĠ": 7446,
      "cf": 7447,
      "John": 7448,
      "Ġsv": 7449,
      "Ġsamples": 7450,
      "QU": 7451,
      "ĠMap": 7452,
      "Ġlabels": 7453,
      "Ġhydro": 7454,
      "ĠBlack": 7455,
      "Te": 7456,
      "tenance": 7457,
      "Ġcompare": 7458,
      "Ġflo": 7459,
      "Ġconsequ": 7460,
      "startswith": 7461,
      "ä¸Ń": 7462,
      "Ġinvestment": 7463,
      "å·": 7464,
      "Ġbul": 7465,
      "Ġrect": 7466,
      "ker": 7467,
      "tended": 7468,
      "ĠIsrael": 7469,
      "jax": 7470,
      "ĠJanuary": 7471,
      "Ġmarine": 7472,
      "BUG": 7473,
      "ĠMER": 7474,
      "panded": 7475,
      "Ġdiscovered": 7476,
      "ĠOptional": 7477,
      "Ġdriv": 7478,
      "Ñī": 7479,
      "resents": 7480,
      "Ġdocumentation": 7481,
      "[\\": 7482,
      "ĠĊĠĠĠ": 7483,
      "Ġdiabetes": 7484,
      "Ġautomatically": 7485,
      "ches": 7486,
      "Ġeconomy": 7487,
      "pb": 7488,
      "rastructure": 7489,
      "serve": 7490,
      "ITNESS": 7491,
      "Ġopportunity": 7492,
      "fast": 7493,
      "Stop": 7494,
      "Parse": 7495,
      ")'": 7496,
      "}>": 7497,
      "Ġpresence": 7498,
      "svn": 7499,
      "Ġmatrix": 7500,
      "Ġconstit": 7501,
      "ancer": 7502,
      "Profile": 7503,
      "edom": 7504,
      "Ġrevenue": 7505,
      "Ġbug": 7506,
      "ĠEven": 7507,
      "Ġscen": 7508,
      "Ġspirit": 7509,
      "ookie": 7510,
      "labels": 7511,
      "Ġdied": 7512,
      "Ġmiles": 7513,
      "canvas": 7514,
      "iful": 7515,
      "Ang": 7516,
      "Ġartist": 7517,
      "Ġplaced": 7518,
      "inger": 7519,
      "Ġlett": 7520,
      "Note": 7521,
      "Ġtensor": 7522,
      "styles": 7523,
      "ĠMod": 7524,
      "throw": 7525,
      "Ġpool": 7526,
      "Ġhighlight": 7527,
      "Ġbalance": 7528,
      "ĠPURPOSE": 7529,
      "pdf": 7530,
      "Ġgir": 7531,
      "mkdir": 7532,
      "Success": 7533,
      "floor": 7534,
      "ĠBack": 7535,
      "Ġum": 7536,
      "Ctrl": 7537,
      "ĠLaw": 7538,
      "Ġts": 7539,
      "ĠSpace": 7540,
      "Ġcompile": 7541,
      "payload": 7542,
      "Ġcoming": 7543,
      "YY": 7544,
      "ĠÑĥ": 7545,
      "Ġ'__": 7546,
      "Ġexperiment": 7547,
      "ĠGen": 7548,
      "CHANT": 7549,
      "Ġeveryone": 7550,
      "Ġdemand": 7551,
      "ĠBOOLEAN": 7552,
      "previous": 7553,
      "Ġcool": 7554,
      "bul": 7555,
      "Ġangular": 7556,
      "Ġhide": 7557,
      "ĠHel": 7558,
      "Ġminimum": 7559,
      "Ġmother": 7560,
      "ificate": 7561,
      "Ġfixed": 7562,
      "Ġstats": 7563,
      "ĠMat": 7564,
      "Ġgar": 7565,
      "Ġmeasures": 7566,
      "Ġcities": 7567,
      "ĠCode": 7568,
      "ĠAmericans": 7569,
      "innerHTML": 7570,
      "dh": 7571,
      "allel": 7572,
      "Ġoccup": 7573,
      "ĠPARTIC": 7574,
      "itis": 7575,
      "ifiers": 7576,
      "BE": 7577,
      "Ġfear": 7578,
      "Ġpow": 7579,
      "ecurity": 7580,
      "Äħ": 7581,
      "odo": 7582,
      "ĠNovember": 7583,
      "ny": 7584,
      "ĠLondon": 7585,
      "Ġappears": 7586,
      "Ġefficient": 7587,
      "Ġhimself": 7588,
      "ignKey": 7589,
      "Ġdocuments": 7590,
      "Ġpsycho": 7591,
      "ĠPARTICULAR": 7592,
      "inher": 7593,
      "æ³": 7594,
      "bruary": 7595,
      "requ": 7596,
      "URI": 7597,
      "Ġwinter": 7598,
      "Ġlinked": 7599,
      "verbose": 7600,
      "Ġlaws": 7601,
      "OUR": 7602,
      "CHANTABILITY": 7603,
      "ority": 7604,
      "zero": 7605,
      "news": 7606,
      "Binary": 7607,
      "DS": 7608,
      "reference": 7609,
      "ĠMem": 7610,
      "ĊĠĠĠĠĠĠĠĠĠĠĠĠĠĠĠĠĠĠĠĠĠĠĠĠĠĠĠĠĠĠĠĠĠ": 7611,
      "btn": 7612,
      "Ġdeb": 7613,
      "()[": 7614,
      "Ġgeneration": 7615,
      "Ġverify": 7616,
      "éĻ": 7617,
      "exc": 7618,
      "ĠPy": 7619,
      "live": 7620,
      "Ġgold": 7621,
      "Ġconcer": 7622,
      "ĠOff": 7623,
      "Ġjournal": 7624,
      "Î±": 7625,
      "ĠWater": 7626,
      "udo": 7627,
      "Ġexperim": 7628,
      "Ð°Ð¼": 7629,
      "'ll": 7630,
      "?.": 7631,
      "esac": 7632,
      "pared": 7633,
      "Ġimg": 7634,
      "Ġalert": 7635,
      "ĠCong": 7636,
      "FORM": 7637,
      "Ġunicode": 7638,
      "pective": 7639,
      "ĠSeptember": 7640,
      "Fields": 7641,
      "Ġsecret": 7642,
      "conn": 7643,
      "ini": 7644,
      "Ġformer": 7645,
      "Ġsmart": 7646,
      "consum": 7647,
      "Ġalone": 7648,
      "å±": 7649,
      "æİ": 7650,
      "Ġstra": 7651,
      "ĠFITNESS": 7652,
      "Ġdeliver": 7653,
      "RES": 7654,
      "Ġlos": 7655,
      "ipher": 7656,
      "Ġking": 7657,
      "defaults": 7658,
      "fficiency": 7659,
      "ĠLet": 7660,
      "forms": 7661,
      "LA": 7662,
      "unteer": 7663,
      "edge": 7664,
      "Ver": 7665,
      "ĠWH": 7666,
      "Ġ!!": 7667,
      "submit": 7668,
      "ICE": 7669,
      "Ġhon": 7670,
      "apers": 7671,
      "ĠTRUE": 7672,
      "Ġfresh": 7673,
      "ĠImport": 7674,
      "Ġinteresting": 7675,
      "Ġjoint": 7676,
      "Entity": 7677,
      "isode": 7678,
      "Ġcss": 7679,
      "extract": 7680,
      "Ġgetattr": 7681,
      "Ġdifferences": 7682,
      "ĠUpdate": 7683,
      "NO": 7684,
      "losed": 7685,
      "ĠCall": 7686,
      "ĠEnd": 7687,
      "Ġhappens": 7688,
      "scape": 7689,
      "LS": 7690,
      "Ġ~": 7691,
      "Ġwrote": 7692,
      "peat": 7693,
      "ycl": 7694,
      "__.": 7695,
      "uy": 7696,
      "ĠĠĠĠĠĠĠĠĠĠĠĠĠ": 7697,
      "Ġpriv": 7698,
      "ĉĉĉ": 7699,
      "claim": 7700,
      "Ġconv": 7701,
      "ĠHouse": 7702,
      "Ġbyte": 7703,
      "available": 7704,
      "ÐºÐ°": 7705,
      "Ġmolec": 7706,
      "âĢĿ,": 7707,
      "numer": 7708,
      "Description": 7709,
      "utable": 7710,
      "ĠParameters": 7711,
      "æľī": 7712,
      "/{": 7713,
      ":]": 7714,
      "loads": 7715,
      "igence": 7716,
      "Ġprov": 7717,
      "ĠHttp": 7718,
      "topic": 7719,
      "Ġblank": 7720,
      "feature": 7721,
      "Ġreduced": 7722,
      "Ġsale": 7723,
      "reject": 7724,
      "åľ¨": 7725,
      "Focus": 7726,
      "aration": 7727,
      "CONF": 7728,
      "Ġpolicies": 7729,
      "ĠRiver": 7730,
      "crete": 7731,
      "grade": 7732,
      "ĠsetTimeout": 7733,
      "regex": 7734,
      "ê¸": 7735,
      "Ġpred": 7736,
      "ÐµÑģ": 7737,
      "Ġprim": 7738,
      "hex": 7739,
      "logging": 7740,
      "Global": 7741,
      "Ġlat": 7742,
      "Ġmarker": 7743,
      "ĠOf": 7744,
      "Ġgenetic": 7745,
      "Sk": 7746,
      "nam": 7747,
      "arrant": 7748,
      "ĠEnvironment": 7749,
      "Ġstandards": 7750,
      "ĠMaybe": 7751,
      "band": 7752,
      "Ġexplicit": 7753,
      "ĊĊĊĠ": 7754,
      "neg": 7755,
      "Ġdetermin": 7756,
      "ĠDNA": 7757,
      "sq": 7758,
      "ÆĴ": 7759,
      "Ġinstances": 7760,
      "Ġradio": 7761,
      "Ã´": 7762,
      "Ġtrace": 7763,
      "ĠGermany": 7764,
      "Dash": 7765,
      "Ġzip": 7766,
      "ĠDirect": 7767,
      "Ġvm": 7768,
      "Ġorganizations": 7769,
      "Ġvirtual": 7770,
      "OC": 7771,
      "WEBPACK": 7772,
      "addEventListener": 7773,
      "Ġvirus": 7774,
      "ĠMERCHANTABILITY": 7775,
      "have": 7776,
      "Ùģ": 7777,
      "Ġcandid": 7778,
      "Ġ$(\"#": 7779,
      "ulf": 7780,
      "ç½": 7781,
      "Ġidentified": 7782,
      "NOT": 7783,
      "layers": 7784,
      "ĠDecember": 7785,
      "Duration": 7786,
      "Ġ++": 7787,
      "continue": 7788,
      "ĠAustralia": 7789,
      "contains": 7790,
      "Ġtreated": 7791,
      "Ġcampaign": 7792,
      "Ġ\"_": 7793,
      "Ġsurvey": 7794,
      "æĶ": 7795,
      "ĠAccording": 7796,
      "Html": 7797,
      "Ġstri": 7798,
      "ĠINTER": 7799,
      "Loader": 7800,
      "detect": 7801,
      "urance": 7802,
      "Ġarticles": 7803,
      "Ġfuel": 7804,
      "Ġteeth": 7805,
      "speed": 7806,
      "Ġhit": 7807,
      "irror": 7808,
      "Ġchoices": 7809,
      "Series": 7810,
      "Ġtur": 7811,
      "Ġtransl": 7812,
      "Area": 7813,
      "({'": 7814,
      "afety": 7815,
      "IAL": 7816,
      "Ġpen": 7817,
      "Ġtown": 7818,
      "tor": 7819,
      "ĠSociety": 7820,
      "orge": 7821,
      "Ġgiving": 7822,
      "Ġnone": 7823,
      "Bytes": 7824,
      "Ġprotected": 7825,
      "Ġbillion": 7826,
      "ĠPresident": 7827,
      "ĠField": 7828,
      "Ð½Ð¸": 7829,
      "Ġroad": 7830,
      "ĠAD": 7831,
      "Ġglob": 7832,
      "andard": 7833,
      "Ġcommerc": 7834,
      "han": 7835,
      "Ġhistorical": 7836,
      "Ġgene": 7837,
      "Ġmodules": 7838,
      "Ġhasattr": 7839,
      "Ġeg": 7840,
      "umes": 7841,
      "Ġexhib": 7842,
      "Ġcloud": 7843,
      "Ġadding": 7844,
      "Ġoperator": 7845,
      "Ġcfg": 7846,
      "animate": 7847,
      "ëĭ¤": 7848,
      "basename": 7849,
      "PRE": 7850,
      "rition": 7851,
      "Ġcommonly": 7852,
      "ĠÙħ": 7853,
      "Ġplanet": 7854,
      "........": 7855,
      "Implement": 7856,
      "PU": 7857,
      "Transaction": 7858,
      "ĠInternet": 7859,
      "Ġlatest": 7860,
      "ĠImage": 7861,
      "'})": 7862,
      "ACE": 7863,
      "History": 7864,
      "ĠWashington": 7865,
      "Ġfrequency": 7866,
      "clusion": 7867,
      "Ġrequirements": 7868,
      "ascript": 7869,
      "Ġrise": 7870,
      "itors": 7871,
      "tee": 7872,
      "encoding": 7873,
      "ĠEmber": 7874,
      "bg": 7875,
      "archive": 7876,
      "Ġsustainable": 7877,
      "Use": 7878,
      "mosph": 7879,
      "Ġwoman": 7880,
      "Ġdrugs": 7881,
      "extension": 7882,
      "akers": 7883,
      "Ġdelta": 7884,
      "Ġauthors": 7885,
      "locale": 7886,
      "tech": 7887,
      "æĢ": 7888,
      "ocab": 7889,
      "RECT": 7890,
      "Ġpeace": 7891,
      "conds": 7892,
      "Interface": 7893,
      "Ġhidden": 7894,
      "panish": 7895,
      "BR": 7896,
      "Ġstories": 7897,
      "Ġpreviously": 7898,
      "backend": 7899,
      "IMPORTED": 7900,
      "Ġpicture": 7901,
      "allery": 7902,
      "abc": 7903,
      "ivo": 7904,
      "Ġexposure": 7905,
      "Ġsupports": 7906,
      "ĠSocial": 7907,
      "Ġoffers": 7908,
      "ĠAng": 7909,
      "ando": 7910,
      "Ġcontinued": 7911,
      "Ġfriends": 7912,
      "Ġparty": 7913,
      "blue": 7914,
      "Scal": 7915,
      "omas": 7916,
      "Support": 7917,
      "isco": 7918,
      "Ġperhaps": 7919,
      "ĠDevelopment": 7920,
      "Ġmal": 7921,
      "Logger": 7922,
      "ĠRoman": 7923,
      "Modal": 7924,
      "Ġcompat": 7925,
      "exe": 7926,
      "hemat": 7927,
      "Ġarchive": 7928,
      "Ġgain": 7929,
      "Ġ}));": 7930,
      "iology": 7931,
      "ãĥĪ": 7932,
      "pir": 7933,
      "rating": 7934,
      "ouses": 7935,
      "ĠSal": 7936,
      "await": 7937,
      "ographic": 7938,
      "Ġexactly": 7939,
      "Ġtrust": 7940,
      "symbols": 7941,
      "theast": 7942,
      "Ġcopyright": 7943,
      "ĠProduct": 7944,
      "South": 7945,
      "Ã¥": 7946,
      "foot": 7947,
      "Ġforeign": 7948,
      "splice": 7949,
      "Gui": 7950,
      "Ġpadding": 7951,
      "Tim": 7952,
      "Ġinnov": 7953,
      "ander": 7954,
      "Ġchance": 7955,
      "enty": 7956,
      "Ġsitu": 7957,
      "Ġ×": 7958,
      "Ġdeleted": 7959,
      "Application": 7960,
      "Ġdecor": 7961,
      "uplicate": 7962,
      "Ġhighest": 7963,
      "ĠGreat": 7964,
      "Ġpregn": 7965,
      "Ġtruth": 7966,
      "Ġreports": 7967,
      "Ġconsumption": 7968,
      "Ġaf": 7969,
      "ĠChurch": 7970,
      "elements": 7971,
      "tim": 7972,
      "arwin": 7973,
      "Ġsurg": 7974,
      "lots": 7975,
      "Ġtransition": 7976,
      "Const": 7977,
      "trace": 7978,
      "STAT": 7979,
      "(?": 7980,
      "Ġworked": 7981,
      "bing": 7982,
      "times": 7983,
      "shared": 7984,
      "Ð°Ðº": 7985,
      "rieve": 7986,
      "Param": 7987,
      "UNAME": 7988,
      "\\'": 7989,
      "pp": 7990,
      "keep": 7991,
      "lor": 7992,
      "Ġalpha": 7993,
      "=$(": 7994,
      "fd": 7995,
      "Ġspo": 7996,
      "Ġchallenge": 7997,
      "strict": 7998,
      "Ġeight": 7999,
      "Ð°Ð·": 8000,
      "oks": 8001,
      "ris": 8002,
      "ulator": 8003,
      "species": 8004,
      "=['": 8005,
      "hook": 8006,
      "Ġsolid": 8007,
      "atisf": 8008,
      "/\"": 8009,
      "pages": 8010,
      "sig": 8011,
      "Pe": 8012,
      "DATA": 8013,
      "Ġpossib": 8014,
      "ĠTO": 8015,
      "reet": 8016,
      "Socket": 8017,
      "stor": 8018,
      "once": 8019,
      "razil": 8020,
      "Ġbank": 8021,
      "configuration": 8022,
      "Ġcycle": 8023,
      "theme": 8024,
      "Ġtransfer": 8025,
      "Resol": 8026,
      "IZE": 8027,
      "binary": 8028,
      "Ġlogin": 8029,
      "Ġresulting": 8030,
      "subscription": 8031,
      "ResponseCallback": 8032,
      "Ġincreases": 8033,
      "gments": 8034,
      "ĠBig": 8035,
      "ĠOper": 8036,
      "Ġscene": 8037,
      "Ġeasier": 8038,
      "issues": 8039,
      "Ġsand": 8040,
      "riend": 8041,
      "Ġfruit": 8042,
      "matrix": 8043,
      "Ġanx": 8044,
      "parator": 8045,
      "å½": 8046,
      "byte": 8047,
      "Ġdetail": 8048,
      "äºº": 8049,
      "here": 8050,
      "Ġcrop": 8051,
      "Ġvehicle": 8052,
      "apped": 8053,
      "ĠHEAD": 8054,
      "Called": 8055,
      "Role": 8056,
      "Ġpair": 8057,
      "ĠAction": 8058,
      "inputs": 8059,
      "Ġclosed": 8060,
      "Big": 8061,
      "Ġstar": 8062,
      "phone": 8063,
      "Ġ{?": 8064,
      "Ġmatching": 8065,
      "states": 8066,
      "week": 8067,
      "Ġuint": 8068,
      "Ġstock": 8069,
      "geometry": 8070,
      "azon": 8071,
      "Ġmobile": 8072,
      "cluster": 8073,
      "ĠDuring": 8074,
      "(\"/": 8075,
      "WEEN": 8076,
      "Ġacade": 8077,
      "Ġcast": 8078,
      "Ð»Ð¸": 8079,
      "Ġmajority": 8080,
      "~~~~": 8081,
      "Ġserve": 8082,
      "Ġworth": 8083,
      "Ġris": 8084,
      "rame": 8085,
      "ĠÃł": 8086,
      "Iterator": 8087,
      "Ġdepending": 8088,
      "-*": 8089,
      "Dat": 8090,
      "Ð¸Ðµ": 8091,
      "Ġincident": 8092,
      "Ġwarrant": 8093,
      ".</": 8094,
      "Ns": 8095,
      "begin": 8096,
      "sleep": 8097,
      "å¾": 8098,
      "plements": 8099,
      "ForeignKey": 8100,
      "ira": 8101,
      "ben": 8102,
      "Ġfather": 8103,
      "otion": 8104,
      "Parameter": 8105,
      "cha": 8106,
      "Ġblocks": 8107,
      "ĠParams": 8108,
      "Category": 8109,
      "green": 8110,
      "ĠGame": 8111,
      "Now": 8112,
      "VENT": 8113,
      "ĠWindows": 8114,
      "Tests": 8115,
      "ishing": 8116,
      "Asia": 8117,
      "rew": 8118,
      "ĠDet": 8119,
      "ĠMal": 8120,
      "added": 8121,
      "Ġvulner": 8122,
      "ĠAv": 8123,
      "cv": 8124,
      "rian": 8125,
      "iper": 8126,
      "ĠDist": 8127,
      "Handle": 8128,
      "ĥ½": 8129,
      "argo": 8130,
      "Äģ": 8131,
      "à°": 8132,
      "icrosoft": 8133,
      "ni": 8134,
      "Ġperformed": 8135,
      "poll": 8136,
      "/^": 8137,
      "Ġmac": 8138,
      "Ġstructures": 8139,
      "Ġtoward": 8140,
      "ĠVis": 8141,
      "Americ": 8142,
      "___": 8143,
      "Ġids": 8144,
      "ETWEEN": 8145,
      ")\\": 8146,
      "Sample": 8147,
      "('-": 8148,
      "ĠGit": 8149,
      "'ve": 8150,
      "Î¿": 8151,
      "eno": 8152,
      "margin": 8153,
      "Ġloading": 8154,
      "under": 8155,
      "Ġpowerful": 8156,
      "Ġrelevant": 8157,
      "Ġsan": 8158,
      "anging": 8159,
      "lan": 8160,
      "Ġrobot": 8161,
      "Fragment": 8162,
      "zh": 8163,
      "aters": 8164,
      "Ġescape": 8165,
      "Ġfert": 8166,
      "ifically": 8167,
      "Ġcluster": 8168,
      "Ġindent": 8169,
      "Ġstaff": 8170,
      "Ġoffice": 8171,
      "AMP": 8172,
      "Amount": 8173,
      "ounce": 8174,
      "yt": 8175,
      "Ġbed": 8176,
      "MAX": 8177,
      "iences": 8178,
      "snapshot": 8179,
      "Ġgave": 8180,
      "Ġformed": 8181,
      "stitution": 8182,
      "Game": 8183,
      "toHave": 8184,
      "Ġalt": 8185,
      "sha": 8186,
      "Ġchanging": 8187,
      "Ġillustr": 8188,
      "Ġpp": 8189,
      "awn": 8190,
      "ĊĠĠĠĠĠĠĠĠĠĠĠĠĊĠĠĠĠĠĠĠĠĠĠĠ": 8191,
      "Ġeventually": 8192,
      "Ġok": 8193,
      "Ġalternative": 8194,
      "Ġbirds": 8195,
      "BA": 8196,
      "Ġdownload": 8197,
      "SY": 8198,
      "ĠResource": 8199,
      "Ġexplain": 8200,
      "Ġcombination": 8201,
      "ĠGreen": 8202,
      "Rows": 8203,
      "ulating": 8204,
      "park": 8205,
      "Font": 8206,
      "Ġspect": 8207,
      "Report": 8208,
      "atted": 8209,
      "alpha": 8210,
      "ocr": 8211,
      "__,": 8212,
      "Ġmanager": 8213,
      "aped": 8214,
      "INSERT": 8215,
      "Ġremaining": 8216,
      "Ġipv": 8217,
      "fess": 8218,
      "åĵ": 8219,
      "Ġmanage": 8220,
      "Ġrelatively": 8221,
      "ĠView": 8222,
      "percent": 8223,
      "Loading": 8224,
      "ĠJapan": 8225,
      "Ġ`${": 8226,
      "Ġmargin": 8227,
      "cluded": 8228,
      "Ġvill": 8229,
      "ĠRights": 8230,
      "':'": 8231,
      "aches": 8232,
      "Ġbreast": 8233,
      "raints": 8234,
      "Ġta": 8235,
      "unct": 8236,
      "ĠControl": 8237,
      "allet": 8238,
      "ĠMIN": 8239,
      "Ġraised": 8240,
      "ĠUs": 8241,
      "operator": 8242,
      "ĠWARRANTY": 8243,
      "Flow": 8244,
      "Ġcollabor": 8245,
      "æŃ": 8246,
      "oma": 8247,
      "Ġsegment": 8248,
      "ester": 8249,
      "ĠDel": 8250,
      "ĠQue": 8251,
      "XML": 8252,
      "Ġbinding": 8253,
      "Ġoffic": 8254,
      "ĠSupport": 8255,
      "Am": 8256,
      "stances": 8257,
      "Ġmouth": 8258,
      "Ġgoals": 8259,
      "ĠBodyResponseCallback": 8260,
      "norm": 8261,
      "currency": 8262,
      "ĊĠĠĠĠĠĠĠĠĠĠĠĠĠĠĠĠĠĠĠĠĠĠĠĠĠĠĠĠĠĠĠĠĠĠ": 8263,
      "Bound": 8264,
      "Ġ----------------------------------------------------------------": 8265,
      "Progress": 8266,
      "Ġchallenges": 8267,
      "ĠBETWEEN": 8268,
      "fixture": 8269,
      "itespace": 8270,
      "Ġzone": 8271,
      "oes": 8272,
      "Ġbits": 8273,
      "avascript": 8274,
      "Ġstation": 8275,
      "osen": 8276,
      "proces": 8277,
      "POS": 8278,
      "Ġeduc": 8279,
      "################################################################": 8280,
      "Symbol": 8281,
      "Ġsuccessfully": 8282,
      "going": 8283,
      "*}": 8284,
      "CUR": 8285,
      "stderr": 8286,
      "Ġshowed": 8287,
      "multi": 8288,
      "Ġbaby": 8289,
      "erry": 8290,
      "({},": 8291,
      "Ġcharge": 8292,
      "Ġdataset": 8293,
      "ĠEgypt": 8294,
      "raining": 8295,
      "ctic": 8296,
      "DELETE": 8297,
      "Extension": 8298,
      "Timer": 8299,
      "Ġschedule": 8300,
      "indices": 8301,
      "AAAAAAAA": 8302,
      "Ġvision": 8303,
      "AGS": 8304,
      "Ġnutri": 8305,
      "Ġfemale": 8306,
      "ĠFore": 8307,
      "Animation": 8308,
      "Ġcourt": 8309,
      "=_": 8310,
      "Async": 8311,
      "Ġaim": 8312,
      "sym": 8313,
      "Ġurban": 8314,
      "Ġimplemented": 8315,
      "Ġles": 8316,
      "hot": 8317,
      "ĠPat": 8318,
      "Ġalcohol": 8319,
      "Ġouter": 8320,
      "Ġgrep": 8321,
      "Ġce": 8322,
      "ĊĊĊĠĠĠĠĠĠĠ": 8323,
      "ello": 8324,
      "Ġsigns": 8325,
      "->": 8326,
      "decor": 8327,
      "override": 8328,
      "Ð¾Ð±": 8329,
      "onic": 8330,
      "Ġmigr": 8331,
      "Ġunless": 8332,
      "Pattern": 8333,
      "kw": 8334,
      "Ġneut": 8335,
      "DateTime": 8336,
      "UTH": 8337,
      "Ġsquare": 8338,
      "Ġsummary": 8339,
      "Ġcorrectly": 8340,
      "ĠJoh": 8341,
      "ousing": 8342,
      "feed": 8343,
      "Ãº": 8344,
      "Ġphilos": 8345,
      "Ġho": 8346,
      "ĠMuseum": 8347,
      "Ġprepare": 8348,
      "escape": 8349,
      ":\",": 8350,
      "csv": 8351,
      "atest": 8352,
      "Ġcouple": 8353,
      "Drag": 8354,
      "ĠPeople": 8355,
      "Br": 8356,
      "typ": 8357,
      "istent": 8358,
      "æĺ¯": 8359,
      "ĊĉĠĠĠĠĠĠĠĠĠĠĠĠ": 8360,
      "Ġrepresents": 8361,
      "displayName": 8362,
      "Ġversions": 8363,
      "Ġstem": 8364,
      "ĠAir": 8365,
      "ä¸į": 8366,
      "Ġsurround": 8367,
      "anned": 8368,
      "Vector": 8369,
      "Ġmapping": 8370,
      "Ġstrategies": 8371,
      ")*": 8372,
      "Chart": 8373,
      "Sum": 8374,
      "Ġprocedure": 8375,
      "Ġil": 8376,
      "]/": 8377,
      "employ": 8378,
      "'][": 8379,
      "ĠRetrieved": 8380,
      "single": 8381,
      "possible": 8382,
      "cheduler": 8383,
      "xl": 8384,
      "ë¡": 8385,
      "Ġju": 8386,
      "Ġ{})": 8387,
      "adv": 8388,
      "More": 8389,
      "Ġstim": 8390,
      "Ġopportunities": 8391,
      "environ": 8392,
      "chunk": 8393,
      "Ġplans": 8394,
      "Ð¶": 8395,
      "ura": 8396,
      "agic": 8397,
      "HOST": 8398,
      "two": 8399,
      "ald": 8400,
      "prite": 8401,
      "perm": 8402,
      "Ġemissions": 8403,
      "uzz": 8404,
      "rr": 8405,
      "defineProperty": 8406,
      "article": 8407,
      "Ġcomments": 8408,
      "Ġadopt": 8409,
      "dataset": 8410,
      "ordinate": 8411,
      "ĠCustom": 8412,
      "Ġ_(\"": 8413,
      "Pay": 8414,
      "ëĭĪ": 8415,
      "inally": 8416,
      "Ġhuge": 8417,
      "ĠFood": 8418,
      "ÑĨÐ¸": 8419,
      "Ġcompreh": 8420,
      "Ġcalling": 8421,
      "rules": 8422,
      "Ġredist": 8423,
      "ogen": 8424,
      "localhost": 8425,
      "Ġcredit": 8426,
      "NUM": 8427,
      "lass": 8428,
      "Short": 8429,
      "Ġdepends": 8430,
      "Ġ'</": 8431,
      "Ġlearned": 8432,
      "ORY": 8433,
      "ãĤ¹": 8434,
      "Ġvalidation": 8435,
      "=${": 8436,
      "Europe": 8437,
      "Nav": 8438,
      "Ġdependencies": 8439,
      "Total": 8440,
      "bro": 8441,
      "ĠĊĠĠĠĠĠĠĠĠĠĠĠ": 8442,
      "hostname": 8443,
      "Ġimmune": 8444,
      "ky": 8445,
      "Ġtox": 8446,
      "Ġ/^": 8447,
      "ĠTur": 8448,
      "Ġinfect": 8449,
      "Ġrenew": 8450,
      "ras": 8451,
      "ĠRo": 8452,
      "Ġplt": 8453,
      "RC": 8454,
      "Ġdegrees": 8455,
      "ĠCour": 8456,
      "ìł": 8457,
      "filters": 8458,
      "Ġbuf": 8459,
      "Writ": 8460,
      "Simple": 8461,
      "ĠLin": 8462,
      "internet": 8463,
      "Ġincome": 8464,
      "tailed": 8465,
      "marker": 8466,
      "Ġmetric": 8467,
      "ÂłÂł": 8468,
      "setAttribute": 8469,
      "JECT": 8470,
      "ĠUK": 8471,
      "ĠOrder": 8472,
      "Ġeducational": 8473,
      "Ġclinical": 8474,
      "Send": 8475,
      "java": 8476,
      "Ġfine": 8477,
      "sid": 8478,
      "sive": 8479,
      "Ġobserved": 8480,
      ")?": 8481,
      "Ġdou": 8482,
      "Screen": 8483,
      "querySelector": 8484,
      "Ġwonder": 8485,
      "must": 8486,
      "ĠIr": 8487,
      "Matrix": 8488,
      "ocial": 8489,
      "Indent": 8490,
      "UPDATE": 8491,
      "FIX": 8492,
      "=\"\"": 8493,
      "æµ": 8494,
      "Ġangle": 8495,
      "Site": 8496,
      "')[": 8497,
      "share": 8498,
      "Ġfle": 8499,
      "Ġfilters": 8500,
      "igure": 8501,
      "ĠRest": 8502,
      "accept": 8503,
      "Ġentries": 8504,
      "Ġoccurred": 8505,
      "apps": 8506,
      "ĠJapanese": 8507,
      "Mixin": 8508,
      "Ġweak": 8509,
      "Ġplanning": 8510,
      "Ġwhom": 8511,
      "ali": 8512,
      "Ġslight": 8513,
      "origin": 8514,
      "ĠNULL": 8515,
      "Ġpieces": 8516,
      "ĠCouncil": 8517,
      "Ġowners": 8518,
      "Ġrestrict": 8519,
      "Ġele": 8520,
      "Ġdisorder": 8521,
      "rootScope": 8522,
      "abric": 8523,
      "Lib": 8524,
      "reverse": 8525,
      "Ġexcess": 8526,
      "Ġbuildings": 8527,
      "Ġcommercial": 8528,
      "DC": 8529,
      "contents": 8530,
      "ITE": 8531,
      "substr": 8532,
      "Ġdepression": 8533,
      "ĠArgs": 8534,
      "ko": 8535,
      "Ġidentifier": 8536,
      "Ġ\\`$": 8537,
      "jquery": 8538,
      "Ġsaved": 8539,
      "stub": 8540,
      "FE": 8541,
      "rim": 8542,
      "getAttribute": 8543,
      "Fail": 8544,
      "aws": 8545,
      "Ġhousehold": 8546,
      "BO": 8547,
      "ĠTheir": 8548,
      "Ġrecommended": 8549,
      "Ġdescriptor": 8550,
      "rich": 8551,
      "Ġriver": 8552,
      "Ġfindings": 8553,
      "ĠFrance": 8554,
      "ĠRegExp": 8555,
      "rase": 8556,
      "Ġconservation": 8557,
      "ades": 8558,
      "illing": 8559,
      "è¨": 8560,
      "Ġtokens": 8561,
      "material": 8562,
      "Ġinstruction": 8563,
      "Ġreleased": 8564,
      "umin": 8565,
      "apsed": 8566,
      "ĠFebruary": 8567,
      "ĠNO": 8568,
      "ĠAssociation": 8569,
      "Ġexperiences": 8570,
      "hicles": 8571,
      "Ġbone": 8572,
      "(\"\\": 8573,
      "Ġorganic": 8574,
      "\"'": 8575,
      "Ġinject": 8576,
      "Ġinsect": 8577,
      "SV": 8578,
      "optional": 8579,
      "big": 8580,
      "Ġgather": 8581,
      "upal": 8582,
      "mov": 8583,
      "ona": 8584,
      "ĠDesc": 8585,
      "Ġatmosph": 8586,
      "Example": 8587,
      "Ġresistance": 8588,
      "Ġabsor": 8589,
      "RENT": 8590,
      "They": 8591,
      "Ġthousands": 8592,
      "Ġ\"+": 8593,
      "aurant": 8594,
      "çĲ": 8595,
      "rack": 8596,
      "nodeType": 8597,
      "Shape": 8598,
      "ĠPlan": 8599,
      "rent": 8600,
      "æĬ": 8601,
      "Identifier": 8602,
      "Ġstroke": 8603,
      "ĠDavid": 8604,
      "ĠBen": 8605,
      "ĠUnder": 8606,
      "LOCK": 8607,
      "Ġcos": 8608,
      "icky": 8609,
      "ĠKore": 8610,
      "Ġneighbor": 8611,
      "atar": 8612,
      "Ġmach": 8613,
      "matches": 8614,
      "ê¸°": 8615,
      "tooltip": 8616,
      "Ġbodies": 8617,
      "validation": 8618,
      "dp": 8619,
      "Ġsolutions": 8620,
      "BER": 8621,
      "North": 8622,
      "Ġpor": 8623,
      "endo": 8624,
      "=}": 8625,
      "calls": 8626,
      "plant": 8627,
      "Ġsymbols": 8628,
      "Ð»Ñı": 8629,
      "binding": 8630,
      "TC": 8631,
      "Ġsalt": 8632,
      "Password": 8633,
      "åī": 8634,
      "Comp": 8635,
      "ĠColumn": 8636,
      "Ġseven": 8637,
      "updated": 8638,
      "Renderer": 8639,
      "radius": 8640,
      "Ġdu": 8641,
      "unteers": 8642,
      "()))": 8643,
      "Ġdetermined": 8644,
      "dn": 8645,
      "ita": 8646,
      "ãģ¦": 8647,
      "ĠØ¨": 8648,
      "Ġestimated": 8649,
      "Ġol": 8650,
      "units": 8651,
      "Ġemployees": 8652,
      "ĠWhether": 8653,
      "Dev": 8654,
      "Ġtechnologies": 8655,
      "Author": 8656,
      "Ġconn": 8657,
      "scious": 8658,
      "ael": 8659,
      "ĠPlease": 8660,
      "Ġjobs": 8661,
      "detail": 8662,
      "Ġbatter": 8663,
      "Ġopin": 8664,
      "celer": 8665,
      "ĠSur": 8666,
      "ters": 8667,
      "Å¡": 8668,
      "%(": 8669,
      "tensor": 8670,
      "aml": 8671,
      "ĠHuman": 8672,
      "ĠGlobal": 8673,
      "Ġplayers": 8674,
      "overs": 8675,
      "Space": 8676,
      "simple": 8677,
      "veloper": 8678,
      "constant": 8679,
      "Ġbuy": 8680,
      "quired": 8681,
      "Ġtrend": 8682,
      "Ġcompiler": 8683,
      "Ġsuggests": 8684,
      "currPos": 8685,
      "SM": 8686,
      "ĠMain": 8687,
      "Ġclassroom": 8688,
      "Ġcorresponding": 8689,
      "{{": 8690,
      "Ġdeploy": 8691,
      "Len": 8692,
      "cers": 8693,
      "Ġemphas": 8694,
      "Ġrace": 8695,
      "ĠPhil": 8696,
      "Ø©": 8697,
      "pel": 8698,
      "ishes": 8699,
      "Ġparticipants": 8700,
      "elif": 8701,
      "ĠOcean": 8702,
      "ums": 8703,
      "Ġvector": 8704,
      "direction": 8705,
      "ivalent": 8706,
      "Ret": 8707,
      "Ġspring": 8708,
      "Ð¾Ñģ": 8709,
      "glob": 8710,
      "Ġpacket": 8711,
      "TypeId": 8712,
      "services": 8713,
      "initions": 8714,
      "slug": 8715,
      "Ġtradition": 8716,
      "ĠTer": 8717,
      "Did": 8718,
      "Member": 8719,
      "ĠMich": 8720,
      "Ġingred": 8721,
      "enth": 8722,
      "Ġstrip": 8723,
      "notes": 8724,
      "Ġattract": 8725,
      "Reference": 8726,
      "ĠProp": 8727,
      "California": 8728,
      "wood": 8729,
      "Ġbattle": 8730,
      "Ġenviron": 8731,
      "Admin": 8732,
      "}\\": 8733,
      "ague": 8734,
      "agraph": 8735,
      "iox": 8736,
      "ìĹ": 8737,
      "Ġindependent": 8738,
      "raises": 8739,
      "Job": 8740,
      "aked": 8741,
      "encing": 8742,
      "Ġdecisions": 8743,
      "Ġrespond": 8744,
      "Ġstarts": 8745,
      "ÄĻ": 8746,
      "urable": 8747,
      "Ġkid": 8748,
      "Ġaccum": 8749,
      "Ġfinding": 8750,
      "Ġindicate": 8751,
      "MIN": 8752,
      "Ġtissue": 8753,
      "testing": 8754,
      "iteral": 8755,
      "ÏĦ": 8756,
      "Ġ///": 8757,
      "Ġisol": 8758,
      "about": 8759,
      "ĠGo": 8760,
      "LIB": 8761,
      "EMA": 8762,
      "å¤§": 8763,
      "Ġredirect": 8764,
      "[:,": 8765,
      "inject": 8766,
      "ĠCSS": 8767,
      "Ġbreath": 8768,
      "Ġliqu": 8769,
      "company": 8770,
      "pointer": 8771,
      "Ġmuscle": 8772,
      "Ġextremely": 8773,
      "TEXT": 8774,
      "*.": 8775,
      "ĠHy": 8776,
      "Ġantib": 8777,
      "hat": 8778,
      "bits": 8779,
      "ĠPop": 8780,
      "lab": 8781,
      "inx": 8782,
      "Ġphen": 8783,
      "}'": 8784,
      "Ġ')": 8785,
      "ĠIM": 8786,
      "Decl": 8787,
      "Ġcompute": 8788,
      "Ġflat": 8789,
      "Byte": 8790,
      "Ġcanvas": 8791,
      "à¸²": 8792,
      "Ġ{*}": 8793,
      "subject": 8794,
      "Ġí": 8795,
      "ĠFind": 8796,
      "Ġarm": 8797,
      "Debug": 8798,
      "Ġheavy": 8799,
      "Ġcreates": 8800,
      "Descript": 8801,
      "Ġpartial": 8802,
      "Ġdistinct": 8803,
      "Ġspeech": 8804,
      "Â²": 8805,
      "Ġassessment": 8806,
      "arp": 8807,
      "ĠPass": 8808,
      "Ġregarding": 8809,
      "Dest": 8810,
      "Ġpull": 8811,
      "ĠSH": 8812,
      "berg": 8813,
      "WARE": 8814,
      "aes": 8815,
      "dump": 8816,
      "Ġwanted": 8817,
      "wall": 8818,
      "customer": 8819,
      "ëĭĪëĭ¤": 8820,
      "ORS": 8821,
      "eder": 8822,
      "perature": 8823,
      "Ġlanguages": 8824,
      "Other": 8825,
      "aven": 8826,
      "ocation": 8827,
      "ĠÃ©": 8828,
      "Ġance": 8829,
      "Ġlooks": 8830,
      "absolute": 8831,
      "Ġunittest": 8832,
      "Ġintended": 8833,
      "Ġbelieved": 8834,
      "ĠTw": 8835,
      "Ġgod": 8836,
      "ĠMult": 8837,
      "Ġscan": 8838,
      "Initial": 8839,
      "gon": 8840,
      "deps": 8841,
      "umbn": 8842,
      "Ġ\")": 8843,
      "Ġneuro": 8844,
      "tte": 8845,
      "pad": 8846,
      "ĠPos": 8847,
      "Connect": 8848,
      "Ġchecked": 8849,
      "Ġpercentage": 8850,
      ":**": 8851,
      "ĠCommon": 8852,
      "expand": 8853,
      "mg": 8854,
      "nn": 8855,
      "ĠAP": 8856,
      "notify": 8857,
      "Ġapproximately": 8858,
      "van": 8859,
      "Â·": 8860,
      "isc": 8861,
      "ĠPolicy": 8862,
      "Ġcontrast": 8863,
      "Ġcovered": 8864,
      "Ġlas": 8865,
      "ONE": 8866,
      "protected": 8867,
      "Ġconfirm": 8868,
      "IVE": 8869,
      "BB": 8870,
      "([^": 8871,
      "sin": 8872,
      "Ġfolder": 8873,
      "Ġmilk": 8874,
      "Ġaren": 8875,
      "Ġtran": 8876,
      "é¡": 8877,
      "Lock": 8878,
      "ç§": 8879,
      "Checker": 8880,
      "Ġintell": 8881,
      "SQL": 8882,
      "Ġpretty": 8883,
      "Ġcm": 8884,
      "Ġmale": 8885,
      "Ġreached": 8886,
      "Ġjs": 8887,
      "Country": 8888,
      "Ġpurposes": 8889,
      "Å¼": 8890,
      "Ġfocused": 8891,
      "Î¹": 8892,
      "small": 8893,
      "eps": 8894,
      "las": 8895,
      "unks": 8896,
      "ĠItem": 8897,
      "puted": 8898,
      "Ġevolution": 8899,
      "Ġframework": 8900,
      "plain": 8901,
      "ĠThus": 8902,
      "Copy": 8903,
      "Null": 8904,
      "fol": 8905,
      "ĠIndex": 8906,
      "Ġnuclear": 8907,
      "Afr": 8908,
      "imize": 8909,
      "ĠSou": 8910,
      "Ġletters": 8911,
      "ĠâĢ¦": 8912,
      "transition": 8913,
      "Ġcombined": 8914,
      "ĠPath": 8915,
      "urt": 8916,
      "missing": 8917,
      "structions": 8918,
      "á¸": 8919,
      "Ġ\":": 8920,
      "relation": 8921,
      "Ġadvanced": 8922,
      "Ġindustrial": 8923,
      "Ð¸Ð¼": 8924,
      "Orig": 8925,
      "ITION": 8926,
      "æŀ": 8927,
      "ĠLanguage": 8928,
      "Ġintroduced": 8929,
      "eff": 8930,
      "Ġdecode": 8931,
      "ĠMIT": 8932,
      "Slide": 8933,
      "Ġaspects": 8934,
      "Ġphone": 8935,
      "Ġcollections": 8936,
      "Rate": 8937,
      "reams": 8938,
      "ĠOnce": 8939,
      "ĠFire": 8940,
      "Ġpartners": 8941,
      "ĠWestern": 8942,
      "SL": 8943,
      "Ġonto": 8944,
      "ÐµÐº": 8945,
      "unately": 8946,
      "lookup": 8947,
      "sales": 8948,
      "aming": 8949,
      "Protocol": 8950,
      "Ġcausing": 8951,
      "Ġtechnique": 8952,
      "ĠChildren": 8953,
      "contact": 8954,
      "=`$": 8955,
      "}],": 8956,
      "stroke": 8957,
      "']);": 8958,
      "standing": 8959,
      "ĠPoint": 8960,
      "etc": 8961,
      "Ġsoft": 8962,
      "===": 8963,
      "avigate": 8964,
      "pres": 8965,
      "deed": 8966,
      "Ġjour": 8967,
      "ĠJames": 8968,
      "Ġrural": 8969,
      "ancing": 8970,
      "ĠÐ°": 8971,
      "ognitive": 8972,
      "à¤¾": 8973,
      "ĠĠĠĠĠĠĠĠĠĠĠĠĠĠĠĠĠĠĠĠĠĠĠĠĠĠĠĠĠĠĠĠĠĠĠĠĠĠĠĠĠĠĠĠĠĠĠĠĠĠĠĠĠĠĠĠĠĠĠĠĠĠĠĠ": 8974,
      "Ġannual": 8975,
      "Alex": 8976,
      "Ġmail": 8977,
      "ĠET": 8978,
      "fold": 8979,
      "nb": 8980,
      "Ġplastic": 8981,
      "database": 8982,
      "Agent": 8983,
      "éģ": 8984,
      "iated": 8985,
      "ĠSpanish": 8986,
      "Ġlegis": 8987,
      "Ġdiscussion": 8988,
      "Ġwarranty": 8989,
      "Email": 8990,
      "Ġsignificantly": 8991,
      "precated": 8992,
      "LANG": 8993,
      "Ġpresented": 8994,
      "Ð¾Ðº": 8995,
      "Ġblog": 8996,
      "ĠAge": 8997,
      "ircle": 8998,
      "Ġdrive": 8999,
      "iced": 9000,
      "idential": 9001,
      "appro": 9002,
      "Ġpromote": 9003,
      "mitter": 9004,
      "Ġfamous": 9005,
      "Ġsuc": 9006,
      "disk": 9007,
      "Ġturned": 9008,
      "Ġextent": 9009,
      "ĠCongress": 9010,
      "ĠCath": 9011,
      "aching": 9012,
      "ategor": 9013,
      "ASA": 9014,
      "OPT": 9015,
      "ĠMessage": 9016,
      "ìĿĦ": 9017,
      "_)": 9018,
      "REQ": 9019,
      "\"));": 9020,
      ">):": 9021,
      "éĽ": 9022,
      "ĠTable": 9023,
      "Ġcarried": 9024,
      "alog": 9025,
      "OFT": 9026,
      ".');": 9027,
      "FC": 9028,
      "clip": 9029,
      "fc": 9030,
      "ĠVe": 9031,
      "Ġanyone": 9032,
      "Ġcustomers": 9033,
      "OB": 9034,
      "INCT": 9035,
      "commod": 9036,
      "Ġmetal": 9037,
      "sequence": 9038,
      "Ġfrequently": 9039,
      "Ġdecades": 9040,
      "seed": 9041,
      "ĊĉĠĠĠĠĠĠĠĠĠĠĠĠĠĠĠĠĠĠĠ": 9042,
      "Ġtranslation": 9043,
      "utom": 9044,
      "('../": 9045,
      "Ġdeferred": 9046,
      "ĠColor": 9047,
      "Power": 9048,
      "Touch": 9049,
      "lantic": 9050,
      "reduce": 9051,
      "Raw": 9052,
      "Ã±": 9053,
      "atom": 9054,
      "Align": 9055,
      "Ġinterpret": 9056,
      "fp": 9057,
      "Ġdt": 9058,
      "Stud": 9059,
      "Ġreality": 9060,
      "Ċĉĉĉĉĉĉĉĉĉ": 9061,
      "Actions": 9062,
      "ä¾": 9063,
      "Prototype": 9064,
      "Ġdivision": 9065,
      "Po": 9066,
      "download": 9067,
      "Common": 9068,
      "Ġrepresentation": 9069,
      "ĠFre": 9070,
      "ĠZe": 9071,
      "Ġrefresh": 9072,
      "EE": 9073,
      "MODE": 9074,
      "ampl": 9075,
      "Ġconvers": 9076,
      "ĠJava": 9077,
      "Ġcalculate": 9078,
      "Ġisland": 9079,
      "hardcode": 9080,
      "]],": 9081,
      "Ġdesp": 9082,
      "Ġdomin": 9083,
      "unnel": 9084,
      "fac": 9085,
      "ena": 9086,
      "Ġbecoming": 9087,
      "tl": 9088,
      "Binding": 9089,
      "losing": 9090,
      "Ġforced": 9091,
      "Ġhear": 9092,
      "atters": 9093,
      "Ġhomes": 9094,
      "asion": 9095,
      "ĠArab": 9096,
      "Ġserved": 9097,
      "idity": 9098,
      "Ġcollege": 9099,
      "Ġtargets": 9100,
      "BL": 9101,
      "Tech": 9102,
      "èĢ": 9103,
      "agation": 9104,
      "ientation": 9105,
      "itage": 9106,
      "Ġ[])": 9107,
      "ubble": 9108,
      "Ġemit": 9109,
      "Save": 9110,
      "åĴ": 9111,
      "Ġaccounts": 9112,
      "Look": 9113,
      "ãģŁ": 9114,
      "xygen": 9115,
      "Ġexecution": 9116,
      "arant": 9117,
      "ffff": 9118,
      "vals": 9119,
      "Ġfreedom": 9120,
      "samples": 9121,
      "ÙĤ": 9122,
      "Ġsubscription": 9123,
      "ãĤ¤": 9124,
      "Ġemb": 9125,
      "Ø§Ø": 9126,
      "Ð¾ÑģÑĤ": 9127,
      "Ġresolution": 9128,
      "\"+": 9129,
      "Ve": 9130,
      "Ġtour": 9131,
      "ĠVar": 9132,
      "That": 9133,
      "Ġtrial": 9134,
      "dc": 9135,
      "Ġwave": 9136,
      "ĠCam": 9137,
      "ĠSelect": 9138,
      "ĠTherefore": 9139,
      "Ġregistered": 9140,
      "Here": 9141,
      "Med": 9142,
      "Ġelectricity": 9143,
      "PH": 9144,
      "reader": 9145,
      "Ġhospital": 9146,
      "osh": 9147,
      "Kind": 9148,
      "TT": 9149,
      "Ġmeeting": 9150,
      "padding": 9151,
      "atellite": 9152,
      "ĠĠĠĠĠĠĠĠĠĠĠĠĠĠ": 9153,
      "Ġball": 9154,
      "')],": 9155,
      "()),": 9156,
      "Ġspot": 9157,
      "atten": 9158,
      "ĠLICENSE": 9159,
      "sts": 9160,
      "Ġunivers": 9161,
      "mc": 9162,
      "ĠGr": 9163,
      "ĠComponent": 9164,
      "aud": 9165,
      "ridge": 9166,
      "fixed": 9167,
      "Ġrelationships": 9168,
      "anim": 9169,
      "Ġms": 9170,
      "ibling": 9171,
      "@\"": 9172,
      "ĠCollege": 9173,
      "adian": 9174,
      "Ġallowing": 9175,
      "Ġ])": 9176,
      "android": 9177,
      "Ġpopulations": 9178,
      "atalog": 9179,
      "Ġsexual": 9180,
      "hp": 9181,
      "istan": 9182,
      "ROOT": 9183,
      "Ġworker": 9184,
      "RA": 9185,
      "tuple": 9186,
      "alm": 9187,
      "æĸ°": 9188,
      ":*:": 9189,
      "ä»¶": 9190,
      "goog": 9191,
      "agination": 9192,
      "Once": 9193,
      "Ġsecure": 9194,
      "Cor": 9195,
      "Ġnove": 9196,
      "ÑģÑĤÐ²": 9197,
      "bc": 9198,
      "commun": 9199,
      "unicode": 9200,
      "ĠEnergy": 9201,
      "assertEquals": 9202,
      "APP": 9203,
      "Ġelimin": 9204,
      "grep": 9205,
      "upt": 9206,
      "sem": 9207,
      "Ġban": 9208,
      "apis": 9209,
      "Ġdiscovery": 9210,
      "vt": 9211,
      "Ġ{!": 9212,
      "Ġratio": 9213,
      "Reader": 9214,
      "Ġprepar": 9215,
      "Ġclaims": 9216,
      "libpath": 9217,
      "metric": 9218,
      "ĠRepublic": 9219,
      "Ġagent": 9220,
      "Ġdependency": 9221,
      "raise": 9222,
      "Tick": 9223,
      "ãĤĬ": 9224,
      "Ġdonation": 9225,
      "ĠEngine": 9226,
      "wiki": 9227,
      "thesis": 9228,
      "blob": 9229,
      "alar": 9230,
      "pn": 9231,
      "\"`": 9232,
      "si": 9233,
      "Ġchronic": 9234,
      "Import": 9235,
      "Ġoperating": 9236,
      "Ġreaction": 9237,
      "Ġtemperatures": 9238,
      "Æ°á»": 9239,
      "è´": 9240,
      "unded": 9241,
      "ĠChange": 9242,
      "Ġredistribute": 9243,
      "ceeded": 9244,
      "ĠMart": 9245,
      "Required": 9246,
      "Ġple": 9247,
      "activity": 9248,
      "tar": 9249,
      "Builder": 9250,
      "ĠWilliam": 9251,
      "acebook": 9252,
      "identifier": 9253,
      "ĠRef": 9254,
      "compat": 9255,
      "Ġinvoked": 9256,
      "Ġupdates": 9257,
      "Ġadvance": 9258,
      "isted": 9259,
      "Ġemergency": 9260,
      "ipp": 9261,
      "Ġdisorders": 9262,
      "ĠSELECT": 9263,
      "vo": 9264,
      "zoom": 9265,
      "ĊĠĠĠĠĠĠĠĠĠĠĠĠĠĠĠĠĠĠĠĠĠĠĠĠĠĠĠĠĠĠĠĠĠĠĠĠ": 9266,
      "NING": 9267,
      "Ġfaster": 9268,
      "forward": 9269,
      "Ġterrit": 9270,
      "generation": 9271,
      "Ġcircum": 9272,
      "Ġliterature": 9273,
      "ìŀ": 9274,
      "scan": 9275,
      "slider": 9276,
      "gov": 9277,
      "íķĺ": 9278,
      "bucket": 9279,
      "__[\"": 9280,
      "Ġcas": 9281,
      "Ġlookup": 9282,
      "ĠLibrary": 9283,
      "Ġvitamin": 9284,
      "Card": 9285,
      "ĠBuffer": 9286,
      "Public": 9287,
      "lectric": 9288,
      "ongo": 9289,
      "Ġindicates": 9290,
      "Ġexplore": 9291,
      "Ġanxiety": 9292,
      "fatal": 9293,
      "ĠBr": 9294,
      "urls": 9295,
      "Ġfarmers": 9296,
      "ĠJewish": 9297,
      "Ġsnapshot": 9298,
      "Ġdogs": 9299,
      "Ġconven": 9300,
      "Ġsecondary": 9301,
      "ĠGovernment": 9302,
      "Ġthreshold": 9303,
      "ala": 9304,
      "ĠMount": 9305,
      "Ġhex": 9306,
      "COL": 9307,
      "ughter": 9308,
      "Ġlocations": 9309,
      "Ġsig": 9310,
      "ĠCH": 9311,
      "}-": 9312,
      "Ġsell": 9313,
      "Ġcomfort": 9314,
      "DEBUG": 9315,
      "Ġexposed": 9316,
      "ailability": 9317,
      "Ġfol": 9318,
      "ophy": 9319,
      "Ġcharg": 9320,
      "Ġeffectively": 9321,
      "Ġfilm": 9322,
      "Ġmit": 9323,
      "Ġvari": 9324,
      "orded": 9325,
      "ĠEvery": 9326,
      "ceive": 9327,
      "ĠAnal": 9328,
      "resp": 9329,
      "ãĥ¼ãĥ": 9330,
      "Ġshowing": 9331,
      "ycling": 9332,
      "war": 9333,
      "Ġpkg": 9334,
      "ctrl": 9335,
      "uted": 9336,
      "Ġlived": 9337,
      "indent": 9338,
      "Ġmeant": 9339,
      "Ġhandlers": 9340,
      "Points": 9341,
      "variables": 9342,
      "RM": 9343,
      "Ġxhr": 9344,
      "ĠLord": 9345,
      "iveness": 9346,
      "Ġgrade": 9347,
      "igenous": 9348,
      "Ġrisks": 9349,
      "Cap": 9350,
      "Ġconsult": 9351,
      "Ġclearly": 9352,
      "orph": 9353,
      "nodeName": 9354,
      "Unknown": 9355,
      "Ġfaith": 9356,
      "ĠSu": 9357,
      "ĠBook": 9358,
      "white": 9359,
      "FG": 9360,
      "Ġmedicine": 9361,
      "Ġwidely": 9362,
      "Ġextended": 9363,
      "scripts": 9364,
      "opacity": 9365,
      "Limit": 9366,
      "Ġdns": 9367,
      "ipedia": 9368,
      "bone": 9369,
      "equ": 9370,
      "Ġnumerous": 9371,
      "Ġlin": 9372,
      "anda": 9373,
      "(\"%": 9374,
      "ĠResponse": 9375,
      "Ġpersons": 9376,
      "ç´": 9377,
      "cluding": 9378,
      "oned": 9379,
      "ĠAre": 9380,
      "NaN": 9381,
      "Router": 9382,
      "ĠMedic": 9383,
      "sentry": 9384,
      "Ġsatisf": 9385,
      "Ġnoted": 9386,
      "flush": 9387,
      "ĠValid": 9388,
      "Multi": 9389,
      "Repository": 9390,
      "Ġdst": 9391,
      "hs": 9392,
      "Äĥ": 9393,
      "icator": 9394,
      "revenue": 9395,
      "Ġkilled": 9396,
      "ova": 9397,
      "Comment": 9398,
      "hasClass": 9399,
      "Ġordered": 9400,
      "Go": 9401,
      "Ġeq": 9402,
      "apons": 9403,
      "Ġspaces": 9404,
      "compare": 9405,
      "connected": 9406,
      "å®ļ": 9407,
      "/',": 9408,
      "sent": 9409,
      "ircraft": 9410,
      "ĠUSA": 9411,
      "Our": 9412,
      "ows": 9413,
      "Ġinterested": 9414,
      "Styles": 9415,
      "ĠSea": 9416,
      "Enter": 9417,
      "dk": 9418,
      "llib": 9419,
      "Ġfeeling": 9420,
      "helpers": 9421,
      "Complete": 9422,
      "netic": 9423,
      "Descriptor": 9424,
      "Py": 9425,
      "ĠTok": 9426,
      "Ġlang": 9427,
      "Ġmeat": 9428,
      "Ġderived": 9429,
      "ĠReport": 9430,
      "`);": 9431,
      "Ġalter": 9432,
      "lopen": 9433,
      "izz": 9434,
      "Ġ$('.": 9435,
      "å¿": 9436,
      "oggle": 9437,
      "Ġmanifest": 9438,
      "special": 9439,
      "anta": 9440,
      "timer": 9441,
      "Ġattached": 9442,
      "clusive": 9443,
      "Ġmentioned": 9444,
      "ĠMac": 9445,
      "CONFIG": 9446,
      "Ġband": 9447,
      "Video": 9448,
      "gest": 9449,
      "Ġprepared": 9450,
      "Ġmatched": 9451,
      "onym": 9452,
      "ĠHome": 9453,
      "imitive": 9454,
      "Ġcruc": 9455,
      "ĊĠĠĠĠĠĠĠĠĠĠĠĠĠĠĠĠĠĠĠĠĠĠĠĠĠĠĠĠĠĠĠĠĠĠĠĠĠ": 9456,
      "Ġembed": 9457,
      "è¡Į": 9458,
      "Ġgarden": 9459,
      "eting": 9460,
      "emy": 9461,
      "Ġlayers": 9462,
      "Ġevalu": 9463,
      "Ġstdout": 9464,
      "Book": 9465,
      "ÑģÑı": 9466,
      "Place": 9467,
      "ĠYEAR": 9468,
      "IGN": 9469,
      "includes": 9470,
      "sap": 9471,
      "classmethod": 9472,
      "Ġmotion": 9473,
      "Ġconducted": 9474,
      "Ġdangerous": 9475,
      "uni": 9476,
      "expression": 9477,
      "pector": 9478,
      "Ġeslint": 9479,
      "Ġhair": 9480,
      "ĠTone": 9481,
      "how": 9482,
      "ĠTry": 9483,
      "Ġslide": 9484,
      "èĥ½": 9485,
      "Ġexcell": 9486,
      "Ġrepresenting": 9487,
      "ustainable": 9488,
      "Projects": 9489,
      "stage": 9490,
      "Ġmostly": 9491,
      ":\\": 9492,
      "á»ĩ": 9493,
      "Loaded": 9494,
      "ti": 9495,
      "Ġhandling": 9496,
      "Ġalgorithm": 9497,
      "Directory": 9498,
      "(',": 9499,
      "Serial": 9500,
      "Ġpul": 9501,
      "Ġbin": 9502,
      "Ġopened": 9503,
      "Ġ))": 9504,
      "ansion": 9505,
      "secret": 9506,
[...]
